#include "model.h"
  
unsigned char model_tflite[] = {
  0x1c, 0x00, 0x00, 0x00, 0x54, 0x46, 0x4c, 0x33, 0x14, 0x00, 0x20, 0x00,
  0x1c, 0x00, 0x18, 0x00, 0x14, 0x00, 0x10, 0x00, 0x0c, 0x00, 0x00, 0x00,
  0x08, 0x00, 0x04, 0x00, 0x14, 0x00, 0x00, 0x00, 0x1c, 0x00, 0x00, 0x00,
  0x90, 0x00, 0x00, 0x00, 0xe8, 0x00, 0x00, 0x00, 0xd8, 0x09, 0x00, 0x00,
  0xe8, 0x09, 0x00, 0x00, 0xa4, 0x0f, 0x00, 0x00, 0x03, 0x00, 0x00, 0x00,
  0x01, 0x00, 0x00, 0x00, 0x10, 0x00, 0x00, 0x00, 0x00, 0x00, 0x0a, 0x00,
  0x10, 0x00, 0x0c, 0x00, 0x08, 0x00, 0x04, 0x00, 0x0a, 0x00, 0x00, 0x00,
  0x0c, 0x00, 0x00, 0x00, 0x1c, 0x00, 0x00, 0x00, 0x38, 0x00, 0x00, 0x00,
  0x0f, 0x00, 0x00, 0x00, 0x73, 0x65, 0x72, 0x76, 0x69, 0x6e, 0x67, 0x5f,
  0x64, 0x65, 0x66, 0x61, 0x75, 0x6c, 0x74, 0x00, 0x01, 0x00, 0x00, 0x00,
  0x04, 0x00, 0x00, 0x00, 0x98, 0xff, 0xff, 0xff, 0x0a, 0x00, 0x00, 0x00,
  0x04, 0x00, 0x00, 0x00, 0x07, 0x00, 0x00, 0x00, 0x64, 0x65, 0x6e, 0x73,
  0x65, 0x5f, 0x32, 0x00, 0x01, 0x00, 0x00, 0x00, 0x04, 0x00, 0x00, 0x00,
  0x0a, 0xf6, 0xff, 0xff, 0x04, 0x00, 0x00, 0x00, 0x0b, 0x00, 0x00, 0x00,
  0x64, 0x65, 0x6e, 0x73, 0x65, 0x5f, 0x69, 0x6e, 0x70, 0x75, 0x74, 0x00,
  0x02, 0x00, 0x00, 0x00, 0x34, 0x00, 0x00, 0x00, 0x04, 0x00, 0x00, 0x00,
  0xdc, 0xff, 0xff, 0xff, 0x0d, 0x00, 0x00, 0x00, 0x04, 0x00, 0x00, 0x00,
  0x13, 0x00, 0x00, 0x00, 0x43, 0x4f, 0x4e, 0x56, 0x45, 0x52, 0x53, 0x49,
  0x4f, 0x4e, 0x5f, 0x4d, 0x45, 0x54, 0x41, 0x44, 0x41, 0x54, 0x41, 0x00,
  0x08, 0x00, 0x0c, 0x00, 0x08, 0x00, 0x04, 0x00, 0x08, 0x00, 0x00, 0x00,
  0x0c, 0x00, 0x00, 0x00, 0x04, 0x00, 0x00, 0x00, 0x13, 0x00, 0x00, 0x00,
  0x6d, 0x69, 0x6e, 0x5f, 0x72, 0x75, 0x6e, 0x74, 0x69, 0x6d, 0x65, 0x5f,
  0x76, 0x65, 0x72, 0x73, 0x69, 0x6f, 0x6e, 0x00, 0x0e, 0x00, 0x00, 0x00,
  0xec, 0x08, 0x00, 0x00, 0xe4, 0x08, 0x00, 0x00, 0xac, 0x08, 0x00, 0x00,
  0x90, 0x08, 0x00, 0x00, 0x30, 0x08, 0x00, 0x00, 0x60, 0x04, 0x00, 0x00,
  0x30, 0x01, 0x00, 0x00, 0xa8, 0x00, 0x00, 0x00, 0xa0, 0x00, 0x00, 0x00,
  0x98, 0x00, 0x00, 0x00, 0x90, 0x00, 0x00, 0x00, 0x88, 0x00, 0x00, 0x00,
  0x68, 0x00, 0x00, 0x00, 0x04, 0x00, 0x00, 0x00, 0xba, 0xf6, 0xff, 0xff,
  0x04, 0x00, 0x00, 0x00, 0x54, 0x00, 0x00, 0x00, 0x0c, 0x00, 0x00, 0x00,
  0x08, 0x00, 0x0e, 0x00, 0x08, 0x00, 0x04, 0x00, 0x08, 0x00, 0x00, 0x00,
  0x10, 0x00, 0x00, 0x00, 0x24, 0x00, 0x00, 0x00, 0x00, 0x00, 0x06, 0x00,
  0x08, 0x00, 0x04, 0x00, 0x06, 0x00, 0x00, 0x00, 0x04, 0x00, 0x00, 0x00,
  0x00, 0x00, 0x00, 0x00, 0x00, 0x00, 0x0a, 0x00, 0x10, 0x00, 0x0c, 0x00,
  0x08, 0x00, 0x04, 0x00, 0x0a, 0x00, 0x00, 0x00, 0x01, 0x00, 0x00, 0x00,
  0x02, 0x00, 0x00, 0x00, 0x04, 0x00, 0x00, 0x00, 0x06, 0x00, 0x00, 0x00,
  0x32, 0x2e, 0x31, 0x32, 0x2e, 0x30, 0x00, 0x00, 0x1a, 0xf7, 0xff, 0xff,
  0x04, 0x00, 0x00, 0x00, 0x10, 0x00, 0x00, 0x00, 0x31, 0x2e, 0x35, 0x2e,
  0x30, 0x00, 0x00, 0x00, 0x00, 0x00, 0x00, 0x00, 0x00, 0x00, 0x00, 0x00,
  0x28, 0xf2, 0xff, 0xff, 0x2c, 0xf2, 0xff, 0xff, 0x30, 0xf2, 0xff, 0xff,
  0x34, 0xf2, 0xff, 0xff, 0x46, 0xf7, 0xff, 0xff, 0x04, 0x00, 0x00, 0x00,
  0x78, 0x00, 0x00, 0x00, 0x74, 0xfe, 0xe6, 0xbc, 0x26, 0x36, 0x18, 0xbf,
  0x85, 0xa3, 0x1d, 0x3e, 0xfe, 0x05, 0x0e, 0xbe, 0xd0, 0x94, 0x1e, 0xbe,
  0x37, 0xae, 0x26, 0x3f, 0x1b, 0xaf, 0xf3, 0xbb, 0x33, 0x5d, 0x7f, 0x3e,
  0x94, 0xdc, 0xc0, 0xbe, 0x76, 0x7f, 0xf8, 0x3d, 0xd9, 0x6d, 0x2c, 0x3e,
  0x67, 0x10, 0xb0, 0x3b, 0x07, 0xfd, 0xe8, 0x3e, 0x1b, 0x00, 0x5e, 0x3e,
  0xd1, 0x81, 0x1a, 0xbf, 0x9a, 0x07, 0xcf, 0x3e, 0x8d, 0xd5, 0x4f, 0x3e,
  0x80, 0xf2, 0x2e, 0xbd, 0x9a, 0x60, 0xa1, 0x3e, 0x78, 0x21, 0x27, 0xbf,
  0x3c, 0xbb, 0xb6, 0x3e, 0x66, 0xd7, 0xec, 0x3e, 0x74, 0x5e, 0xb7, 0x3e,
  0xe5, 0x9d, 0x17, 0xbf, 0x21, 0x87, 0xcf, 0xbe, 0xbe, 0x76, 0xce, 0xbe,
  0xa9, 0x5c, 0x9e, 0xbe, 0x80, 0xd3, 0x28, 0xbd, 0x9b, 0x66, 0x14, 0xbf,
  0x1b, 0x0b, 0xc7, 0xbe, 0xca, 0xf7, 0xff, 0xff, 0x04, 0x00, 0x00, 0x00,
  0x20, 0x03, 0x00, 0x00, 0x8b, 0xbd, 0xa6, 0xbe, 0x25, 0x0c, 0xe4, 0xbe,
  0xd2, 0x58, 0xaa, 0xbe, 0xe8, 0xd2, 0xb4, 0xbd, 0x4d, 0x90, 0x9e, 0xbd,
  0xd1, 0x39, 0xc5, 0xbe, 0x43, 0x86, 0xc0, 0x3e, 0x89, 0x07, 0x8a, 0x3e,
  0xb0, 0x49, 0x29, 0xbd, 0x96, 0x96, 0x28, 0x3e, 0xb4, 0x77, 0x18, 0xbb,
  0x39, 0x89, 0xac, 0xbe, 0xe5, 0x65, 0x89, 0xbc, 0xea, 0xde, 0x9f, 0x3e,
  0x3d, 0x18, 0x83, 0xbe, 0x2d, 0x92, 0x07, 0xbe, 0x18, 0xb4, 0x81, 0x3d,
  0xc7, 0xd8, 0xb4, 0x3e, 0xd7, 0xea, 0x16, 0x3e, 0x35, 0xf1, 0x85, 0x3e,
  0xb7, 0xed, 0xd3, 0x3d, 0x15, 0x1d, 0x0f, 0xbc, 0xa8, 0xf1, 0xee, 0xbd,
  0xe7, 0x69, 0x97, 0xbe, 0x4f, 0x2e, 0x17, 0xbe, 0x60, 0x0e, 0xc5, 0xbe,
  0x8f, 0x72, 0xbb, 0xbe, 0x86, 0xac, 0xbd, 0x3e, 0x42, 0x59, 0x87, 0x3e,
  0xd4, 0xe6, 0x64, 0x3e, 0x3a, 0x0b, 0xe7, 0x3e, 0x00, 0x0b, 0xfb, 0xbd,
  0xb1, 0x0e, 0x3f, 0x3e, 0xf2, 0x52, 0x7c, 0x3e, 0x66, 0x8d, 0xa3, 0x3e,
  0x55, 0xab, 0xfe, 0xbd, 0x00, 0x56, 0x38, 0xbc, 0xd1, 0xf7, 0xd7, 0x3d,
  0x21, 0x93, 0xcb, 0x3e, 0x6f, 0xaf, 0xf5, 0x3e, 0xfe, 0xed, 0x89, 0xbe,
  0x92, 0x1b, 0x72, 0xbd, 0xad, 0x0d, 0xa3, 0x3e, 0x58, 0x05, 0x74, 0x3e,
  0xe9, 0xb2, 0x97, 0xbe, 0x15, 0xfd, 0x67, 0x3e, 0x30, 0xb1, 0x3d, 0x3e,
  0xdf, 0x18, 0xd2, 0xbe, 0x7c, 0xa5, 0xcf, 0xbe, 0x10, 0x3e, 0x84, 0x3c,
  0x97, 0xe7, 0x3b, 0x3d, 0xce, 0x37, 0x80, 0xbe, 0xad, 0x62, 0x7b, 0x3d,
  0x06, 0xfc, 0xca, 0x3e, 0xd8, 0x83, 0xd7, 0x3d, 0xf3, 0xfe, 0xb7, 0x3e,
  0x46, 0x9b, 0x9c, 0x3e, 0x93, 0xc9, 0xce, 0x3e, 0x79, 0x9d, 0x6a, 0xbd,
  0x0e, 0xaa, 0xd3, 0xbe, 0xa4, 0x16, 0x4e, 0xbe, 0x7b, 0x4b, 0xaf, 0xbe,
  0xd8, 0xa2, 0x25, 0xbe, 0x40, 0x0e, 0x72, 0xbe, 0xc6, 0x6d, 0xa4, 0xbe,
  0x32, 0x62, 0x79, 0x3e, 0x04, 0xc0, 0xf8, 0x3d, 0x79, 0xa3, 0xbe, 0xbe,
  0x00, 0x78, 0x47, 0x39, 0xfd, 0x06, 0x56, 0x3e, 0x82, 0x2d, 0xbe, 0x3e,
  0x7b, 0x9f, 0xf4, 0xbe, 0x93, 0xdc, 0x7f, 0x3e, 0x7c, 0x82, 0x89, 0xbc,
  0xa1, 0xda, 0x20, 0x3e, 0x6c, 0x65, 0x26, 0x3d, 0x43, 0x81, 0xb2, 0xbe,
  0xff, 0x27, 0xd5, 0xbe, 0xfa, 0xd5, 0xbb, 0x3e, 0x08, 0x23, 0xaa, 0x3e,
  0xc9, 0xf1, 0x5c, 0xbe, 0x44, 0x5e, 0xef, 0xbe, 0x42, 0x0e, 0x0f, 0xbe,
  0x20, 0x7c, 0x06, 0xbe, 0xbe, 0x9a, 0x2b, 0xbe, 0x46, 0xd4, 0xb4, 0x3e,
  0xbf, 0x69, 0x2c, 0xbe, 0x21, 0xa3, 0x5c, 0xbc, 0x8c, 0x32, 0x4a, 0x3e,
  0x14, 0xa9, 0x27, 0xbe, 0xd8, 0x1b, 0xee, 0x3d, 0x76, 0x18, 0x6a, 0x3d,
  0x8e, 0x2c, 0x1d, 0xbe, 0x50, 0x7b, 0xb4, 0xbe, 0xe2, 0xe0, 0xa4, 0xbe,
  0x04, 0x5f, 0x8d, 0x3d, 0x88, 0xf2, 0xf3, 0x3d, 0x2f, 0x15, 0x3f, 0x3e,
  0x35, 0xdc, 0x86, 0x3e, 0x70, 0x30, 0xa5, 0xbd, 0x3e, 0x28, 0x73, 0x3b,
  0x41, 0xde, 0x58, 0xbe, 0x19, 0x58, 0x88, 0xbe, 0x90, 0xf3, 0x85, 0x3d,
  0x01, 0x04, 0x80, 0x3e, 0x56, 0xb7, 0xf0, 0xbb, 0xf1, 0x54, 0xd0, 0x3e,
  0xb0, 0x25, 0xd3, 0x3e, 0x50, 0xde, 0xd9, 0x3d, 0xe1, 0x3b, 0xb5, 0x3e,
  0x0f, 0xcd, 0xf1, 0xbd, 0x0a, 0x07, 0x9e, 0xbe, 0x5c, 0xc5, 0xa5, 0x3e,
  0xca, 0x0a, 0x65, 0x3e, 0x25, 0x94, 0xab, 0xbe, 0x51, 0x1e, 0xb0, 0x3e,
  0x28, 0xde, 0x99, 0x3e, 0xfb, 0x89, 0x8c, 0xbe, 0xba, 0x7f, 0x70, 0xbd,
  0x98, 0x1e, 0x6c, 0xbc, 0xbf, 0x83, 0xbd, 0x3e, 0xc8, 0x09, 0x78, 0x3d,
  0x4a, 0xa4, 0x29, 0x3e, 0x2c, 0x51, 0xa2, 0x3e, 0xf5, 0x39, 0xe8, 0x3d,
  0xa5, 0x5a, 0xc8, 0xbd, 0x93, 0x03, 0xb4, 0x3d, 0x93, 0x90, 0xdd, 0xbd,
  0x7c, 0xac, 0x39, 0xbe, 0xb3, 0x75, 0x97, 0xbc, 0xb1, 0xa5, 0xc9, 0x3d,
  0xc8, 0x53, 0xae, 0x3d, 0xf3, 0x3b, 0xae, 0x3e, 0x6b, 0x2e, 0xd0, 0x3e,
  0x4c, 0xb8, 0x26, 0xbd, 0x97, 0x4a, 0x46, 0xbe, 0x0e, 0x20, 0x87, 0xbe,
  0x3a, 0x4c, 0x9a, 0xbe, 0x8e, 0x8d, 0x48, 0xbe, 0x6b, 0x9d, 0x51, 0xbe,
  0x12, 0xe6, 0x53, 0xbe, 0x7b, 0xdc, 0x92, 0xbd, 0x86, 0xea, 0xc4, 0x3e,
  0x14, 0xd3, 0x19, 0x3e, 0x5c, 0xe9, 0xd4, 0xbc, 0xcf, 0x50, 0xb3, 0x3d,
  0xf1, 0xca, 0x2a, 0xbe, 0xf7, 0x88, 0x34, 0xbe, 0x54, 0xed, 0x36, 0x3e,
  0x6b, 0x83, 0xd3, 0x3e, 0xa2, 0xbe, 0xaf, 0x3e, 0x07, 0xb1, 0x76, 0x3e,
  0xec, 0x47, 0x9a, 0x3e, 0x24, 0x2a, 0x04, 0x3e, 0x0d, 0x39, 0x88, 0x3e,
  0x9f, 0xb9, 0x54, 0xbe, 0xc0, 0xfd, 0xbe, 0x3b, 0x23, 0x22, 0x5e, 0xbe,
  0x8f, 0x8a, 0x03, 0x3e, 0x59, 0x13, 0xa9, 0x3e, 0x6a, 0x5f, 0x6e, 0xbe,
  0xc8, 0xd2, 0x2a, 0x3e, 0x3a, 0x97, 0x91, 0xbe, 0xfc, 0x50, 0xd9, 0xbd,
  0x30, 0xe1, 0x90, 0x3c, 0x50, 0xaa, 0xe8, 0xbd, 0x14, 0x8a, 0x36, 0x3e,
  0xcc, 0x37, 0xca, 0xbe, 0x8c, 0x2b, 0x9f, 0xbe, 0x00, 0xe6, 0x75, 0x3d,
  0x0e, 0xde, 0xb5, 0x3e, 0xd0, 0xd4, 0x36, 0x3e, 0x77, 0x93, 0xb5, 0xbe,
  0x3f, 0x41, 0x5a, 0xbe, 0x18, 0xc6, 0x0d, 0x3e, 0xc4, 0x51, 0x79, 0xbe,
  0xb0, 0x38, 0x27, 0x3e, 0xc2, 0x03, 0x88, 0xbe, 0xc3, 0xc2, 0xc7, 0xbe,
  0xe2, 0x08, 0xb5, 0xbe, 0xbd, 0xc2, 0x19, 0xbd, 0x4e, 0x9d, 0xae, 0xbe,
  0xd8, 0x31, 0xa9, 0x3e, 0x88, 0x6e, 0xde, 0xbe, 0x1c, 0x8f, 0x96, 0x3e,
  0x75, 0xcc, 0xcd, 0x3e, 0x92, 0x0a, 0x13, 0x3e, 0x6a, 0x54, 0xb9, 0xbe,
  0xe8, 0x15, 0xd0, 0x3e, 0xe9, 0x2d, 0x45, 0xbd, 0x66, 0x07, 0x1e, 0x3e,
  0x5d, 0x8a, 0x97, 0xbe, 0x20, 0x5b, 0xd3, 0x3e, 0x97, 0x63, 0x42, 0xbe,
  0xef, 0x8a, 0xa8, 0x3d, 0xb0, 0xb3, 0x08, 0x3e, 0x5c, 0x8b, 0x90, 0x3e,
  0x2b, 0x3c, 0x2e, 0xbe, 0xee, 0xfb, 0xb2, 0xbe, 0xec, 0xe7, 0x00, 0x3e,
  0xf6, 0xfa, 0xff, 0xff, 0x04, 0x00, 0x00, 0x00, 0xc0, 0x03, 0x00, 0x00,
  0xf5, 0x7a, 0xa2, 0xbd, 0xb5, 0x6f, 0xb7, 0x3e, 0xfd, 0xc5, 0x1f, 0xbd,
  0x40, 0xb2, 0x2a, 0x3d, 0x5b, 0x8b, 0x2a, 0x3e, 0xcc, 0x1d, 0x19, 0x3d,
  0xde, 0x66, 0x9f, 0x3e, 0x56, 0x73, 0x12, 0x3e, 0xc1, 0x14, 0x92, 0x3e,
  0x29, 0x98, 0x1c, 0x3e, 0x6c, 0xed, 0x3f, 0xbe, 0xb4, 0x9d, 0xd0, 0xbe,
  0x67, 0x9a, 0x35, 0x3e, 0x3f, 0x2b, 0x6a, 0x3e, 0xf3, 0xd5, 0xac, 0xbe,
  0x25, 0xe2, 0xde, 0xbe, 0xa6, 0x39, 0x03, 0xbe, 0x34, 0x0c, 0x5a, 0x3e,
  0x23, 0xa6, 0x06, 0x3d, 0xed, 0xd6, 0x80, 0xbe, 0x9a, 0xdd, 0x3b, 0xbe,
  0x1a, 0xfb, 0xd7, 0xbd, 0xd2, 0x08, 0xb9, 0xbc, 0x79, 0x87, 0xfd, 0xbd,
  0xa1, 0x30, 0x4f, 0xbe, 0x80, 0x52, 0x22, 0x3d, 0x31, 0xf2, 0xb9, 0x3e,
  0xd2, 0xbd, 0x0a, 0xbd, 0x82, 0x48, 0x76, 0x3d, 0xa9, 0x28, 0xf4, 0x3d,
  0x2c, 0x3f, 0xcc, 0x3d, 0x3f, 0x89, 0x84, 0xbb, 0xd9, 0xf3, 0x80, 0x3e,
  0xce, 0x15, 0x8e, 0xbe, 0xc9, 0x5d, 0x28, 0x3e, 0x8f, 0xad, 0xbf, 0x3e,
  0x82, 0x80, 0x35, 0xbe, 0xbc, 0x1e, 0xcd, 0x3d, 0x8c, 0x17, 0x93, 0xbd,
  0x29, 0x2c, 0x58, 0xbe, 0x58, 0x92, 0x38, 0xbd, 0x44, 0x02, 0x8a, 0xbd,
  0x35, 0xd1, 0xdb, 0xbe, 0x30, 0x87, 0x7a, 0xbe, 0x01, 0xa5, 0xb5, 0x3e,
  0xfa, 0x94, 0x2d, 0x3e, 0x30, 0x59, 0x85, 0xbc, 0xff, 0x38, 0x8c, 0xbe,
  0xe0, 0xb2, 0x9b, 0x3d, 0xb8, 0xc2, 0xeb, 0x3d, 0xde, 0x37, 0xc6, 0x3e,
  0x53, 0x5c, 0x84, 0xbe, 0x8c, 0xc9, 0x63, 0xbe, 0x1c, 0xd1, 0x37, 0x3e,
  0xa7, 0x0d, 0x40, 0x3e, 0x04, 0x87, 0x8b, 0xbd, 0x9f, 0x22, 0x5e, 0x3e,
  0x92, 0xd2, 0xf4, 0xbc, 0xf6, 0x42, 0x63, 0xbe, 0xea, 0x4e, 0x8c, 0xbe,
  0x59, 0xc1, 0x1c, 0x3e, 0x97, 0x21, 0x74, 0xbe, 0x73, 0x7b, 0xd6, 0x3d,
  0x39, 0x94, 0x39, 0xbd, 0x03, 0x59, 0x5a, 0x3e, 0x15, 0x94, 0xa8, 0xbd,
  0x8d, 0x29, 0x12, 0x3e, 0x16, 0xd8, 0xb3, 0xbe, 0x20, 0x51, 0x88, 0x3e,
  0x11, 0x6f, 0xc6, 0xbe, 0xc9, 0xbc, 0xb0, 0x3d, 0xdb, 0x56, 0x91, 0x3e,
  0x22, 0x33, 0xb5, 0xbe, 0x2c, 0x9e, 0x22, 0x3d, 0xd4, 0x50, 0xba, 0xbe,
  0x4d, 0x41, 0xbc, 0x3e, 0x58, 0x75, 0x96, 0x3e, 0xb4, 0x3f, 0x2f, 0xbe,
  0x82, 0xa4, 0x86, 0x3e, 0x12, 0xf2, 0xd8, 0x3e, 0x42, 0x32, 0x80, 0x3d,
  0x05, 0x78, 0x26, 0x3e, 0xe6, 0x04, 0xa4, 0xbb, 0xef, 0x6d, 0xb2, 0x3e,
  0xd3, 0x09, 0xe8, 0x3e, 0x2b, 0xb7, 0x73, 0x3e, 0xc0, 0x61, 0x2c, 0xbe,
  0x15, 0xe7, 0x4a, 0xbe, 0x91, 0x4b, 0xc3, 0x3e, 0x2a, 0x12, 0xb5, 0xbe,
  0xfe, 0x09, 0xab, 0x3d, 0x8c, 0x7f, 0xf2, 0xbd, 0xd4, 0x69, 0x2e, 0xbe,
  0xb4, 0x42, 0xc5, 0x3e, 0xf2, 0xbb, 0x75, 0x3e, 0x0d, 0xc2, 0x1a, 0xbe,
  0x62, 0x4d, 0x3b, 0x3e, 0x32, 0x3e, 0x7b, 0x3e, 0x0a, 0xe1, 0x70, 0x3e,
  0xa0, 0x5b, 0x7b, 0x3d, 0x38, 0x5a, 0x8d, 0xbd, 0x80, 0x71, 0x4a, 0x3c,
  0xdc, 0xb2, 0x8c, 0xbe, 0xf1, 0x83, 0xb1, 0x3e, 0x96, 0x6c, 0x90, 0xbe,
  0xca, 0x1d, 0xaf, 0xbe, 0xd8, 0x9a, 0x8c, 0xbe, 0x19, 0x41, 0xad, 0x3e,
  0xf0, 0x81, 0x1e, 0xbd, 0x14, 0xd2, 0x65, 0xbe, 0xc2, 0xdf, 0x27, 0x3e,
  0xe5, 0x94, 0x3c, 0x3d, 0xec, 0xbd, 0xbb, 0xbd, 0x9f, 0x68, 0x88, 0xbe,
  0x1a, 0x6e, 0x50, 0xbe, 0xca, 0x10, 0x8f, 0xbe, 0x23, 0x58, 0xbf, 0xbd,
  0x1f, 0xd2, 0x2f, 0xbe, 0x8f, 0x66, 0x29, 0xbe, 0xb6, 0x5e, 0xa5, 0x3d,
  0x10, 0x64, 0x91, 0xbe, 0x9b, 0xeb, 0xc6, 0xbe, 0xb7, 0x0c, 0x1a, 0x3e,
  0xed, 0x36, 0xc1, 0xbe, 0xc8, 0x09, 0xe2, 0x3d, 0x9b, 0x52, 0x22, 0xbd,
  0xce, 0xf8, 0xc0, 0xbe, 0xb1, 0x7a, 0x90, 0x3e, 0x9f, 0x32, 0xed, 0x3d,
  0xf0, 0x27, 0x52, 0x3d, 0xc4, 0x00, 0x17, 0x3c, 0x78, 0xc8, 0x9c, 0x3c,
  0x4c, 0x26, 0x09, 0x3e, 0xa9, 0xd1, 0xc0, 0xbd, 0x67, 0xe1, 0x15, 0x3d,
  0x99, 0xd2, 0x39, 0x3e, 0x36, 0xdc, 0x11, 0xbe, 0x6b, 0x18, 0x14, 0xbe,
  0xca, 0x1e, 0x7e, 0x3e, 0xe0, 0x6a, 0xcc, 0x3d, 0xed, 0x59, 0xa2, 0xbc,
  0x13, 0x06, 0xd7, 0x3e, 0x6e, 0xc6, 0x4b, 0x3e, 0xaa, 0x5d, 0x93, 0xbd,
  0xa7, 0xe0, 0x98, 0xbe, 0xe3, 0xcd, 0xb1, 0xbe, 0x7b, 0x63, 0x79, 0xbd,
  0xfc, 0x43, 0x99, 0xbe, 0x63, 0xb4, 0x98, 0x3e, 0x61, 0x6a, 0xb2, 0x3e,
  0xeb, 0x5d, 0x9e, 0x3e, 0x05, 0x59, 0xed, 0xbe, 0x7a, 0x27, 0xe9, 0xbe,
  0x64, 0xfe, 0xa5, 0x3d, 0xa3, 0x57, 0x12, 0x3e, 0x5c, 0x01, 0xd5, 0x3d,
  0x66, 0x13, 0x4c, 0x3e, 0x6b, 0x59, 0xaf, 0xbe, 0x87, 0x37, 0x0c, 0x3e,
  0x74, 0xae, 0xb1, 0x3e, 0xac, 0x2c, 0x70, 0xbe, 0x60, 0x78, 0x8d, 0xbe,
  0x42, 0x8c, 0xd3, 0xbd, 0x2a, 0xd3, 0x70, 0x3e, 0x6c, 0x87, 0x59, 0x3e,
  0x37, 0xee, 0x5c, 0xbe, 0x34, 0x93, 0x6f, 0xbd, 0x80, 0xab, 0xaa, 0xbe,
  0x25, 0x28, 0xb8, 0xbd, 0x61, 0x79, 0xa6, 0x3e, 0x13, 0xdd, 0x16, 0x3d,
  0x1b, 0x10, 0x89, 0xbe, 0xde, 0x6c, 0xd7, 0xbe, 0xf3, 0xee, 0x04, 0x3d,
  0xed, 0x29, 0x66, 0xbd, 0xab, 0x36, 0xa3, 0xbd, 0xe8, 0x69, 0x94, 0x3e,
  0xbb, 0x3c, 0xb9, 0x3d, 0x2f, 0x9f, 0xc9, 0x3e, 0x06, 0x6d, 0xbc, 0xbe,
  0x16, 0xe3, 0xe9, 0xbe, 0x44, 0x09, 0x73, 0xbe, 0x86, 0x42, 0x00, 0xbe,
  0x94, 0xbc, 0xe9, 0xbd, 0xf8, 0xc2, 0xba, 0x3e, 0x65, 0x25, 0x5a, 0xbe,
  0x20, 0xa1, 0x7c, 0x3d, 0xe4, 0x61, 0xa7, 0xbe, 0x81, 0x4a, 0x50, 0xbe,
  0xbc, 0xd6, 0x05, 0xbe, 0xdb, 0x6c, 0x9d, 0x3d, 0xeb, 0x60, 0xcf, 0x3d,
  0x98, 0x20, 0x1b, 0xbe, 0xee, 0xc1, 0x09, 0x3e, 0x16, 0xc7, 0x35, 0x3e,
  0x01, 0x75, 0xc9, 0xbe, 0x68, 0x97, 0x76, 0x3d, 0xc3, 0xed, 0x90, 0x3e,
  0x37, 0x4c, 0x8d, 0x3e, 0x69, 0xbe, 0x8f, 0x3e, 0xeb, 0xe7, 0x87, 0x3e,
  0x8e, 0x08, 0x30, 0x3e, 0x29, 0x40, 0xaf, 0xbe, 0x66, 0x01, 0x6b, 0x3e,
  0xd3, 0xaa, 0xff, 0x3d, 0xdf, 0x4a, 0x14, 0xbe, 0x3e, 0x7c, 0x96, 0xbe,
  0x92, 0x53, 0x6f, 0xbe, 0x04, 0xcb, 0x2d, 0xbe, 0x84, 0x04, 0xa9, 0x3e,
  0x72, 0x47, 0xd4, 0x3e, 0x7b, 0x0f, 0x8d, 0x3e, 0x9b, 0xd4, 0xef, 0xbc,
  0x19, 0xf0, 0x42, 0x3e, 0xa0, 0x02, 0x46, 0x3e, 0x66, 0x97, 0xbe, 0xbe,
  0x33, 0xc3, 0x9f, 0x3d, 0x04, 0x52, 0x9f, 0xbe, 0x66, 0xa0, 0x5c, 0xbe,
  0x4e, 0xc2, 0xd4, 0xbe, 0x6d, 0x94, 0xa6, 0x3d, 0x78, 0x21, 0xc3, 0x3e,
  0x95, 0xf0, 0x78, 0x3e, 0x0e, 0x90, 0xbc, 0x3d, 0x6a, 0x72, 0x15, 0x3e,
  0x0d, 0xde, 0xcc, 0xbe, 0xf1, 0x64, 0x9d, 0xbd, 0xed, 0x61, 0xbe, 0x3e,
  0xfd, 0x02, 0x94, 0xbd, 0xf0, 0x02, 0xfd, 0xbd, 0xa8, 0x2e, 0x77, 0x3e,
  0x54, 0x58, 0x96, 0x3e, 0xff, 0x33, 0xd0, 0x3e, 0x7b, 0xe7, 0xde, 0xbe,
  0x99, 0x66, 0x95, 0x3e, 0xec, 0x4e, 0xc4, 0x3e, 0xd2, 0xcb, 0x8c, 0x3d,
  0x3f, 0x1b, 0x13, 0xbe, 0xbc, 0x83, 0xbc, 0x3e, 0xf4, 0x51, 0x85, 0xbc,
  0xc2, 0xfe, 0xff, 0xff, 0x04, 0x00, 0x00, 0x00, 0x50, 0x00, 0x00, 0x00,
  0xd4, 0x66, 0x14, 0xbd, 0x94, 0x9f, 0xf5, 0xbc, 0xdb, 0xfc, 0x59, 0x3c,
  0x00, 0x00, 0x00, 0x00, 0x28, 0x1d, 0x40, 0xbc, 0x54, 0x5b, 0xc8, 0x3b,
  0x7b, 0x4b, 0xcd, 0x3c, 0x87, 0x4c, 0x7c, 0xbc, 0x00, 0x00, 0x00, 0x00,
  0xb8, 0x05, 0x88, 0xbc, 0xe9, 0xe9, 0x92, 0xbc, 0x19, 0xc8, 0x3a, 0x3d,
  0xef, 0xa5, 0xd2, 0xbc, 0x4a, 0x96, 0x0b, 0xbd, 0xb0, 0x3a, 0xf3, 0xbc,
  0x6a, 0x53, 0x9d, 0xbc, 0x00, 0x00, 0x00, 0x00, 0x78, 0xb3, 0xc1, 0x3c,
  0x9a, 0x7b, 0x47, 0xbc, 0xc2, 0xda, 0xbe, 0xbc, 0x1e, 0xff, 0xff, 0xff,
  0x04, 0x00, 0x00, 0x00, 0x0c, 0x00, 0x00, 0x00, 0x59, 0xb0, 0x29, 0x3c,
  0x75, 0x0f, 0x81, 0xbc, 0x29, 0x08, 0xaf, 0x3c, 0x36, 0xff, 0xff, 0xff,
  0x04, 0x00, 0x00, 0x00, 0x28, 0x00, 0x00, 0x00, 0xa0, 0x8d, 0x84, 0x3c,
  0x4b, 0x9c, 0x8f, 0xbb, 0xb9, 0xd8, 0xba, 0x3c, 0x75, 0x22, 0x99, 0xbc,
  0xba, 0xd2, 0xd2, 0x3c, 0x9e, 0x04, 0xbf, 0xbc, 0x70, 0x4b, 0xa8, 0xbc,
  0x93, 0xfd, 0xd1, 0x3b, 0x00, 0x00, 0x00, 0x00, 0xc0, 0x81, 0x45, 0x3c,
  0x5c, 0xfa, 0xff, 0xff, 0x60, 0xfa, 0xff, 0xff, 0x0f, 0x00, 0x00, 0x00,
  0x4d, 0x4c, 0x49, 0x52, 0x20, 0x43, 0x6f, 0x6e, 0x76, 0x65, 0x72, 0x74,
  0x65, 0x64, 0x2e, 0x00, 0x01, 0x00, 0x00, 0x00, 0x14, 0x00, 0x00, 0x00,
  0x00, 0x00, 0x0e, 0x00, 0x18, 0x00, 0x14, 0x00, 0x10, 0x00, 0x0c, 0x00,
  0x08, 0x00, 0x04, 0x00, 0x0e, 0x00, 0x00, 0x00, 0x14, 0x00, 0x00, 0x00,
  0x1c, 0x00, 0x00, 0x00, 0x24, 0x01, 0x00, 0x00, 0x28, 0x01, 0x00, 0x00,
  0x2c, 0x01, 0x00, 0x00, 0x04, 0x00, 0x00, 0x00, 0x6d, 0x61, 0x69, 0x6e,
  0x00, 0x00, 0x00, 0x00, 0x04, 0x00, 0x00, 0x00, 0xcc, 0x00, 0x00, 0x00,
  0x84, 0x00, 0x00, 0x00, 0x50, 0x00, 0x00, 0x00, 0x14, 0x00, 0x00, 0x00,
  0x00, 0x00, 0x0e, 0x00, 0x1a, 0x00, 0x14, 0x00, 0x10, 0x00, 0x0c, 0x00,
  0x0b, 0x00, 0x04, 0x00, 0x0e, 0x00, 0x00, 0x00, 0x1c, 0x00, 0x00, 0x00,
  0x00, 0x00, 0x00, 0x09, 0x1c, 0x00, 0x00, 0x00, 0x20, 0x00, 0x00, 0x00,
  0x01, 0x00, 0x00, 0x00, 0x00, 0x00, 0x06, 0x00, 0x08, 0x00, 0x04, 0x00,
  0x06, 0x00, 0x00, 0x00, 0x00, 0x00, 0x80, 0x3f, 0x01, 0x00, 0x00, 0x00,
  0x0a, 0x00, 0x00, 0x00, 0x01, 0x00, 0x00, 0x00, 0x09, 0x00, 0x00, 0x00,
  0x9a, 0xff, 0xff, 0xff, 0x10, 0x00, 0x00, 0x00, 0x00, 0x00, 0x00, 0x08,
  0x0c, 0x00, 0x00, 0x00, 0x10, 0x00, 0x00, 0x00, 0x24, 0xfb, 0xff, 0xff,
  0x01, 0x00, 0x00, 0x00, 0x09, 0x00, 0x00, 0x00, 0x03, 0x00, 0x00, 0x00,
  0x08, 0x00, 0x00, 0x00, 0x06, 0x00, 0x00, 0x00, 0x02, 0x00, 0x00, 0x00,
  0xca, 0xff, 0xff, 0xff, 0x10, 0x00, 0x00, 0x00, 0x00, 0x00, 0x00, 0x08,
  0x10, 0x00, 0x00, 0x00, 0x14, 0x00, 0x00, 0x00, 0xba, 0xff, 0xff, 0xff,
  0x00, 0x00, 0x00, 0x01, 0x01, 0x00, 0x00, 0x00, 0x08, 0x00, 0x00, 0x00,
  0x03, 0x00, 0x00, 0x00, 0x07, 0x00, 0x00, 0x00, 0x05, 0x00, 0x00, 0x00,
  0x01, 0x00, 0x00, 0x00, 0x00, 0x00, 0x0e, 0x00, 0x16, 0x00, 0x00, 0x00,
  0x10, 0x00, 0x0c, 0x00, 0x0b, 0x00, 0x04, 0x00, 0x0e, 0x00, 0x00, 0x00,
  0x18, 0x00, 0x00, 0x00, 0x00, 0x00, 0x00, 0x08, 0x18, 0x00, 0x00, 0x00,
  0x1c, 0x00, 0x00, 0x00, 0x00, 0x00, 0x06, 0x00, 0x08, 0x00, 0x07, 0x00,
  0x06, 0x00, 0x00, 0x00, 0x00, 0x00, 0x00, 0x01, 0x01, 0x00, 0x00, 0x00,
  0x07, 0x00, 0x00, 0x00, 0x03, 0x00, 0x00, 0x00, 0x00, 0x00, 0x00, 0x00,
  0x04, 0x00, 0x00, 0x00, 0x03, 0x00, 0x00, 0x00, 0x01, 0x00, 0x00, 0x00,
  0x0a, 0x00, 0x00, 0x00, 0x01, 0x00, 0x00, 0x00, 0x00, 0x00, 0x00, 0x00,
  0x0b, 0x00, 0x00, 0x00, 0x04, 0x04, 0x00, 0x00, 0x94, 0x03, 0x00, 0x00,
  0x24, 0x03, 0x00, 0x00, 0xd0, 0x02, 0x00, 0x00, 0x88, 0x02, 0x00, 0x00,
  0x3c, 0x02, 0x00, 0x00, 0xf0, 0x01, 0x00, 0x00, 0x68, 0x01, 0x00, 0x00,
  0xd8, 0x00, 0x00, 0x00, 0x60, 0x00, 0x00, 0x00, 0x04, 0x00, 0x00, 0x00,
  0x3e, 0xfc, 0xff, 0xff, 0x00, 0x00, 0x00, 0x01, 0x14, 0x00, 0x00, 0x00,
  0x1c, 0x00, 0x00, 0x00, 0x1c, 0x00, 0x00, 0x00, 0x0b, 0x00, 0x00, 0x00,
  0x34, 0x00, 0x00, 0x00, 0x02, 0x00, 0x00, 0x00, 0xff, 0xff, 0xff, 0xff,
  0x03, 0x00, 0x00, 0x00, 0x28, 0xfc, 0xff, 0xff, 0x19, 0x00, 0x00, 0x00,
  0x53, 0x74, 0x61, 0x74, 0x65, 0x66, 0x75, 0x6c, 0x50, 0x61, 0x72, 0x74,
  0x69, 0x74, 0x69, 0x6f, 0x6e, 0x65, 0x64, 0x43, 0x61, 0x6c, 0x6c, 0x3a,
  0x30, 0x00, 0x00, 0x00, 0x02, 0x00, 0x00, 0x00, 0x01, 0x00, 0x00, 0x00,
  0x03, 0x00, 0x00, 0x00, 0x96, 0xfc, 0xff, 0xff, 0x00, 0x00, 0x00, 0x01,
  0x14, 0x00, 0x00, 0x00, 0x1c, 0x00, 0x00, 0x00, 0x1c, 0x00, 0x00, 0x00,
  0x0a, 0x00, 0x00, 0x00, 0x50, 0x00, 0x00, 0x00, 0x02, 0x00, 0x00, 0x00,
  0xff, 0xff, 0xff, 0xff, 0x03, 0x00, 0x00, 0x00, 0x80, 0xfc, 0xff, 0xff,
  0x34, 0x00, 0x00, 0x00, 0x73, 0x65, 0x71, 0x75, 0x65, 0x6e, 0x74, 0x69,
  0x61, 0x6c, 0x2f, 0x64, 0x65, 0x6e, 0x73, 0x65, 0x5f, 0x32, 0x2f, 0x4d,
  0x61, 0x74, 0x4d, 0x75, 0x6c, 0x3b, 0x73, 0x65, 0x71, 0x75, 0x65, 0x6e,
  0x74, 0x69, 0x61, 0x6c, 0x2f, 0x64, 0x65, 0x6e, 0x73, 0x65, 0x5f, 0x32,
  0x2f, 0x42, 0x69, 0x61, 0x73, 0x41, 0x64, 0x64, 0x00, 0x00, 0x00, 0x00,
  0x02, 0x00, 0x00, 0x00, 0x01, 0x00, 0x00, 0x00, 0x03, 0x00, 0x00, 0x00,
  0x0a, 0xfd, 0xff, 0xff, 0x00, 0x00, 0x00, 0x01, 0x14, 0x00, 0x00, 0x00,
  0x1c, 0x00, 0x00, 0x00, 0x1c, 0x00, 0x00, 0x00, 0x09, 0x00, 0x00, 0x00,
  0x68, 0x00, 0x00, 0x00, 0x02, 0x00, 0x00, 0x00, 0xff, 0xff, 0xff, 0xff,
  0x0a, 0x00, 0x00, 0x00, 0xf4, 0xfc, 0xff, 0xff, 0x4c, 0x00, 0x00, 0x00,
  0x73, 0x65, 0x71, 0x75, 0x65, 0x6e, 0x74, 0x69, 0x61, 0x6c, 0x2f, 0x64,
  0x65, 0x6e, 0x73, 0x65, 0x5f, 0x31, 0x2f, 0x4d, 0x61, 0x74, 0x4d, 0x75,
  0x6c, 0x3b, 0x73, 0x65, 0x71, 0x75, 0x65, 0x6e, 0x74, 0x69, 0x61, 0x6c,
  0x2f, 0x64, 0x65, 0x6e, 0x73, 0x65, 0x5f, 0x31, 0x2f, 0x52, 0x65, 0x6c,
  0x75, 0x3b, 0x73, 0x65, 0x71, 0x75, 0x65, 0x6e, 0x74, 0x69, 0x61, 0x6c,
  0x2f, 0x64, 0x65, 0x6e, 0x73, 0x65, 0x5f, 0x31, 0x2f, 0x42, 0x69, 0x61,
  0x73, 0x41, 0x64, 0x64, 0x00, 0x00, 0x00, 0x00, 0x02, 0x00, 0x00, 0x00,
  0x01, 0x00, 0x00, 0x00, 0x0a, 0x00, 0x00, 0x00, 0x96, 0xfd, 0xff, 0xff,
  0x00, 0x00, 0x00, 0x01, 0x14, 0x00, 0x00, 0x00, 0x1c, 0x00, 0x00, 0x00,
  0x1c, 0x00, 0x00, 0x00, 0x08, 0x00, 0x00, 0x00, 0x60, 0x00, 0x00, 0x00,
  0x02, 0x00, 0x00, 0x00, 0xff, 0xff, 0xff, 0xff, 0x14, 0x00, 0x00, 0x00,
  0x80, 0xfd, 0xff, 0xff, 0x46, 0x00, 0x00, 0x00, 0x73, 0x65, 0x71, 0x75,
  0x65, 0x6e, 0x74, 0x69, 0x61, 0x6c, 0x2f, 0x64, 0x65, 0x6e, 0x73, 0x65,
  0x2f, 0x4d, 0x61, 0x74, 0x4d, 0x75, 0x6c, 0x3b, 0x73, 0x65, 0x71, 0x75,
  0x65, 0x6e, 0x74, 0x69, 0x61, 0x6c, 0x2f, 0x64, 0x65, 0x6e, 0x73, 0x65,
  0x2f, 0x52, 0x65, 0x6c, 0x75, 0x3b, 0x73, 0x65, 0x71, 0x75, 0x65, 0x6e,
  0x74, 0x69, 0x61, 0x6c, 0x2f, 0x64, 0x65, 0x6e, 0x73, 0x65, 0x2f, 0x42,
  0x69, 0x61, 0x73, 0x41, 0x64, 0x64, 0x00, 0x00, 0x02, 0x00, 0x00, 0x00,
  0x01, 0x00, 0x00, 0x00, 0x14, 0x00, 0x00, 0x00, 0x86, 0xfe, 0xff, 0xff,
  0x00, 0x00, 0x00, 0x01, 0x10, 0x00, 0x00, 0x00, 0x10, 0x00, 0x00, 0x00,
  0x07, 0x00, 0x00, 0x00, 0x28, 0x00, 0x00, 0x00, 0xf4, 0xfd, 0xff, 0xff,
  0x19, 0x00, 0x00, 0x00, 0x73, 0x65, 0x71, 0x75, 0x65, 0x6e, 0x74, 0x69,
  0x61, 0x6c, 0x2f, 0x64, 0x65, 0x6e, 0x73, 0x65, 0x5f, 0x32, 0x2f, 0x4d,
  0x61, 0x74, 0x4d, 0x75, 0x6c, 0x00, 0x00, 0x00, 0x02, 0x00, 0x00, 0x00,
  0x03, 0x00, 0x00, 0x00, 0x0a, 0x00, 0x00, 0x00, 0xce, 0xfe, 0xff, 0xff,
  0x00, 0x00, 0x00, 0x01, 0x10, 0x00, 0x00, 0x00, 0x10, 0x00, 0x00, 0x00,
  0x06, 0x00, 0x00, 0x00, 0x28, 0x00, 0x00, 0x00, 0x3c, 0xfe, 0xff, 0xff,
  0x19, 0x00, 0x00, 0x00, 0x73, 0x65, 0x71, 0x75, 0x65, 0x6e, 0x74, 0x69,
  0x61, 0x6c, 0x2f, 0x64, 0x65, 0x6e, 0x73, 0x65, 0x5f, 0x31, 0x2f, 0x4d,
  0x61, 0x74, 0x4d, 0x75, 0x6c, 0x00, 0x00, 0x00, 0x02, 0x00, 0x00, 0x00,
  0x0a, 0x00, 0x00, 0x00, 0x14, 0x00, 0x00, 0x00, 0x16, 0xff, 0xff, 0xff,
  0x00, 0x00, 0x00, 0x01, 0x10, 0x00, 0x00, 0x00, 0x10, 0x00, 0x00, 0x00,
  0x05, 0x00, 0x00, 0x00, 0x24, 0x00, 0x00, 0x00, 0x84, 0xfe, 0xff, 0xff,
  0x17, 0x00, 0x00, 0x00, 0x73, 0x65, 0x71, 0x75, 0x65, 0x6e, 0x74, 0x69,
  0x61, 0x6c, 0x2f, 0x64, 0x65, 0x6e, 0x73, 0x65, 0x2f, 0x4d, 0x61, 0x74,
  0x4d, 0x75, 0x6c, 0x00, 0x02, 0x00, 0x00, 0x00, 0x14, 0x00, 0x00, 0x00,
  0x0c, 0x00, 0x00, 0x00, 0x5a, 0xff, 0xff, 0xff, 0x00, 0x00, 0x00, 0x01,
  0x10, 0x00, 0x00, 0x00, 0x10, 0x00, 0x00, 0x00, 0x04, 0x00, 0x00, 0x00,
  0x34, 0x00, 0x00, 0x00, 0xc8, 0xfe, 0xff, 0xff, 0x27, 0x00, 0x00, 0x00,
  0x73, 0x65, 0x71, 0x75, 0x65, 0x6e, 0x74, 0x69, 0x61, 0x6c, 0x2f, 0x64,
  0x65, 0x6e, 0x73, 0x65, 0x2f, 0x42, 0x69, 0x61, 0x73, 0x41, 0x64, 0x64,
  0x2f, 0x52, 0x65, 0x61, 0x64, 0x56, 0x61, 0x72, 0x69, 0x61, 0x62, 0x6c,
  0x65, 0x4f, 0x70, 0x00, 0x01, 0x00, 0x00, 0x00, 0x14, 0x00, 0x00, 0x00,
  0xaa, 0xff, 0xff, 0xff, 0x00, 0x00, 0x00, 0x01, 0x10, 0x00, 0x00, 0x00,
  0x10, 0x00, 0x00, 0x00, 0x03, 0x00, 0x00, 0x00, 0x38, 0x00, 0x00, 0x00,
  0x18, 0xff, 0xff, 0xff, 0x29, 0x00, 0x00, 0x00, 0x73, 0x65, 0x71, 0x75,
  0x65, 0x6e, 0x74, 0x69, 0x61, 0x6c, 0x2f, 0x64, 0x65, 0x6e, 0x73, 0x65,
  0x5f, 0x32, 0x2f, 0x42, 0x69, 0x61, 0x73, 0x41, 0x64, 0x64, 0x2f, 0x52,
  0x65, 0x61, 0x64, 0x56, 0x61, 0x72, 0x69, 0x61, 0x62, 0x6c, 0x65, 0x4f,
  0x70, 0x00, 0x00, 0x00, 0x01, 0x00, 0x00, 0x00, 0x03, 0x00, 0x00, 0x00,
  0x00, 0x00, 0x16, 0x00, 0x18, 0x00, 0x14, 0x00, 0x00, 0x00, 0x10, 0x00,
  0x0c, 0x00, 0x08, 0x00, 0x00, 0x00, 0x00, 0x00, 0x00, 0x00, 0x07, 0x00,
  0x16, 0x00, 0x00, 0x00, 0x00, 0x00, 0x00, 0x01, 0x10, 0x00, 0x00, 0x00,
  0x10, 0x00, 0x00, 0x00, 0x02, 0x00, 0x00, 0x00, 0x38, 0x00, 0x00, 0x00,
  0x84, 0xff, 0xff, 0xff, 0x29, 0x00, 0x00, 0x00, 0x73, 0x65, 0x71, 0x75,
  0x65, 0x6e, 0x74, 0x69, 0x61, 0x6c, 0x2f, 0x64, 0x65, 0x6e, 0x73, 0x65,
  0x5f, 0x31, 0x2f, 0x42, 0x69, 0x61, 0x73, 0x41, 0x64, 0x64, 0x2f, 0x52,
  0x65, 0x61, 0x64, 0x56, 0x61, 0x72, 0x69, 0x61, 0x62, 0x6c, 0x65, 0x4f,
  0x70, 0x00, 0x00, 0x00, 0x01, 0x00, 0x00, 0x00, 0x0a, 0x00, 0x00, 0x00,
  0x00, 0x00, 0x16, 0x00, 0x1c, 0x00, 0x18, 0x00, 0x00, 0x00, 0x14, 0x00,
  0x10, 0x00, 0x0c, 0x00, 0x00, 0x00, 0x00, 0x00, 0x08, 0x00, 0x07, 0x00,
  0x16, 0x00, 0x00, 0x00, 0x00, 0x00, 0x00, 0x01, 0x14, 0x00, 0x00, 0x00,
  0x20, 0x00, 0x00, 0x00, 0x20, 0x00, 0x00, 0x00, 0x01, 0x00, 0x00, 0x00,
  0x3c, 0x00, 0x00, 0x00, 0x02, 0x00, 0x00, 0x00, 0xff, 0xff, 0xff, 0xff,
  0x0c, 0x00, 0x00, 0x00, 0x04, 0x00, 0x04, 0x00, 0x04, 0x00, 0x00, 0x00,
  0x1d, 0x00, 0x00, 0x00, 0x73, 0x65, 0x72, 0x76, 0x69, 0x6e, 0x67, 0x5f,
  0x64, 0x65, 0x66, 0x61, 0x75, 0x6c, 0x74, 0x5f, 0x64, 0x65, 0x6e, 0x73,
  0x65, 0x5f, 0x69, 0x6e, 0x70, 0x75, 0x74, 0x3a, 0x30, 0x00, 0x00, 0x00,
  0x02, 0x00, 0x00, 0x00, 0x01, 0x00, 0x00, 0x00, 0x0c, 0x00, 0x00, 0x00,
  0x02, 0x00, 0x00, 0x00, 0x20, 0x00, 0x00, 0x00, 0x04, 0x00, 0x00, 0x00,
  0xf4, 0xff, 0xff, 0xff, 0x19, 0x00, 0x00, 0x00, 0x00, 0x00, 0x00, 0x19,
  0x0c, 0x00, 0x0c, 0x00, 0x0b, 0x00, 0x00, 0x00, 0x00, 0x00, 0x04, 0x00,
  0x0c, 0x00, 0x00, 0x00, 0x09, 0x00, 0x00, 0x00, 0x00, 0x00, 0x00, 0x09
};
unsigned int model_tflite_len = 4104;