unsigned char model_tflite[] = {
  0x1c, 0x00, 0x00, 0x00, 0x54, 0x46, 0x4c, 0x33, 0x14, 0x00, 0x20, 0x00,
  0x1c, 0x00, 0x18, 0x00, 0x14, 0x00, 0x10, 0x00, 0x0c, 0x00, 0x00, 0x00,
  0x08, 0x00, 0x04, 0x00, 0x14, 0x00, 0x00, 0x00, 0x1c, 0x00, 0x00, 0x00,
  0x90, 0x00, 0x00, 0x00, 0xe8, 0x00, 0x00, 0x00, 0x28, 0x0a, 0x00, 0x00,
  0x38, 0x0a, 0x00, 0x00, 0xf4, 0x0f, 0x00, 0x00, 0x03, 0x00, 0x00, 0x00,
  0x01, 0x00, 0x00, 0x00, 0x10, 0x00, 0x00, 0x00, 0x00, 0x00, 0x0a, 0x00,
  0x10, 0x00, 0x0c, 0x00, 0x08, 0x00, 0x04, 0x00, 0x0a, 0x00, 0x00, 0x00,
  0x0c, 0x00, 0x00, 0x00, 0x1c, 0x00, 0x00, 0x00, 0x38, 0x00, 0x00, 0x00,
  0x0f, 0x00, 0x00, 0x00, 0x73, 0x65, 0x72, 0x76, 0x69, 0x6e, 0x67, 0x5f,
  0x64, 0x65, 0x66, 0x61, 0x75, 0x6c, 0x74, 0x00, 0x01, 0x00, 0x00, 0x00,
  0x04, 0x00, 0x00, 0x00, 0x98, 0xff, 0xff, 0xff, 0x0a, 0x00, 0x00, 0x00,
  0x04, 0x00, 0x00, 0x00, 0x07, 0x00, 0x00, 0x00, 0x64, 0x65, 0x6e, 0x73,
  0x65, 0x5f, 0x32, 0x00, 0x01, 0x00, 0x00, 0x00, 0x04, 0x00, 0x00, 0x00,
  0xba, 0xf5, 0xff, 0xff, 0x04, 0x00, 0x00, 0x00, 0x0b, 0x00, 0x00, 0x00,
  0x64, 0x65, 0x6e, 0x73, 0x65, 0x5f, 0x69, 0x6e, 0x70, 0x75, 0x74, 0x00,
  0x02, 0x00, 0x00, 0x00, 0x34, 0x00, 0x00, 0x00, 0x04, 0x00, 0x00, 0x00,
  0xdc, 0xff, 0xff, 0xff, 0x0d, 0x00, 0x00, 0x00, 0x04, 0x00, 0x00, 0x00,
  0x13, 0x00, 0x00, 0x00, 0x43, 0x4f, 0x4e, 0x56, 0x45, 0x52, 0x53, 0x49,
  0x4f, 0x4e, 0x5f, 0x4d, 0x45, 0x54, 0x41, 0x44, 0x41, 0x54, 0x41, 0x00,
  0x08, 0x00, 0x0c, 0x00, 0x08, 0x00, 0x04, 0x00, 0x08, 0x00, 0x00, 0x00,
  0x0c, 0x00, 0x00, 0x00, 0x04, 0x00, 0x00, 0x00, 0x13, 0x00, 0x00, 0x00,
  0x6d, 0x69, 0x6e, 0x5f, 0x72, 0x75, 0x6e, 0x74, 0x69, 0x6d, 0x65, 0x5f,
  0x76, 0x65, 0x72, 0x73, 0x69, 0x6f, 0x6e, 0x00, 0x0e, 0x00, 0x00, 0x00,
  0x3c, 0x09, 0x00, 0x00, 0x34, 0x09, 0x00, 0x00, 0xfc, 0x08, 0x00, 0x00,
  0xe0, 0x08, 0x00, 0x00, 0x80, 0x08, 0x00, 0x00, 0x60, 0x04, 0x00, 0x00,
  0x30, 0x01, 0x00, 0x00, 0xa8, 0x00, 0x00, 0x00, 0xa0, 0x00, 0x00, 0x00,
  0x98, 0x00, 0x00, 0x00, 0x90, 0x00, 0x00, 0x00, 0x88, 0x00, 0x00, 0x00,
  0x68, 0x00, 0x00, 0x00, 0x04, 0x00, 0x00, 0x00, 0x6a, 0xf6, 0xff, 0xff,
  0x04, 0x00, 0x00, 0x00, 0x54, 0x00, 0x00, 0x00, 0x0c, 0x00, 0x00, 0x00,
  0x08, 0x00, 0x0e, 0x00, 0x08, 0x00, 0x04, 0x00, 0x08, 0x00, 0x00, 0x00,
  0x10, 0x00, 0x00, 0x00, 0x24, 0x00, 0x00, 0x00, 0x00, 0x00, 0x06, 0x00,
  0x08, 0x00, 0x04, 0x00, 0x06, 0x00, 0x00, 0x00, 0x04, 0x00, 0x00, 0x00,
  0x00, 0x00, 0x00, 0x00, 0x00, 0x00, 0x0a, 0x00, 0x10, 0x00, 0x0c, 0x00,
  0x08, 0x00, 0x04, 0x00, 0x0a, 0x00, 0x00, 0x00, 0x01, 0x00, 0x00, 0x00,
  0x02, 0x00, 0x00, 0x00, 0x04, 0x00, 0x00, 0x00, 0x06, 0x00, 0x00, 0x00,
  0x32, 0x2e, 0x31, 0x32, 0x2e, 0x30, 0x00, 0x00, 0xca, 0xf6, 0xff, 0xff,
  0x04, 0x00, 0x00, 0x00, 0x10, 0x00, 0x00, 0x00, 0x31, 0x2e, 0x35, 0x2e,
  0x30, 0x00, 0x00, 0x00, 0x00, 0x00, 0x00, 0x00, 0x00, 0x00, 0x00, 0x00,
  0xd8, 0xf1, 0xff, 0xff, 0xdc, 0xf1, 0xff, 0xff, 0xe0, 0xf1, 0xff, 0xff,
  0xe4, 0xf1, 0xff, 0xff, 0xf6, 0xf6, 0xff, 0xff, 0x04, 0x00, 0x00, 0x00,
  0x78, 0x00, 0x00, 0x00, 0xcb, 0x88, 0xbc, 0xbe, 0x04, 0xf6, 0x16, 0xbf,
  0xbd, 0x54, 0x92, 0x3e, 0x74, 0x3c, 0x23, 0x3e, 0xa9, 0xbb, 0x14, 0xbe,
  0xe8, 0xf9, 0xe4, 0x3e, 0x62, 0x7d, 0x41, 0x3e, 0xa8, 0x86, 0xf4, 0x3e,
  0x5c, 0x22, 0xea, 0xbe, 0x4a, 0x5f, 0xea, 0xbe, 0xd5, 0x7d, 0x11, 0x3f,
  0xa9, 0x82, 0xf2, 0xbe, 0x8c, 0x19, 0xdf, 0x3e, 0xb0, 0x9e, 0x13, 0x3f,
  0xa0, 0x45, 0x11, 0xbf, 0x45, 0xd1, 0x26, 0xbf, 0xb3, 0x16, 0xd8, 0xbe,
  0x84, 0x16, 0xa9, 0xbd, 0x47, 0xdb, 0x1e, 0x3f, 0x8e, 0xa4, 0x25, 0xbf,
  0xaa, 0x3e, 0xa6, 0x3e, 0x52, 0xf2, 0x80, 0x3d, 0x44, 0x31, 0x70, 0xbe,
  0x3b, 0x1c, 0x29, 0xbf, 0xf5, 0x35, 0xae, 0x3e, 0x68, 0x0c, 0xa2, 0xbd,
  0xf0, 0x72, 0x11, 0x3f, 0x53, 0xe5, 0x22, 0x3f, 0x04, 0xb0, 0xfd, 0x3d,
  0xed, 0xf9, 0x17, 0xbf, 0x7a, 0xf7, 0xff, 0xff, 0x04, 0x00, 0x00, 0x00,
  0x20, 0x03, 0x00, 0x00, 0x31, 0xdf, 0xcb, 0x3e, 0x8f, 0x90, 0xbc, 0x3e,
  0x56, 0xe1, 0x5f, 0xbe, 0xb4, 0xa4, 0xb4, 0x3d, 0xf4, 0x1a, 0x39, 0x3e,
  0xb8, 0x63, 0xc6, 0xbe, 0x7d, 0xb4, 0x36, 0x3e, 0x40, 0x11, 0xd0, 0xbe,
  0x11, 0x45, 0x83, 0xbd, 0xad, 0x6e, 0xcd, 0x3e, 0xb0, 0xa2, 0x3e, 0x3e,
  0x2f, 0xa5, 0xae, 0x3e, 0x94, 0x37, 0x3c, 0xbe, 0x72, 0xf6, 0xf0, 0xbd,
  0x95, 0x53, 0x89, 0x3e, 0x09, 0x5c, 0xcb, 0xbe, 0x50, 0x54, 0xa7, 0xbe,
  0x92, 0x0e, 0xa0, 0xbe, 0x17, 0xf6, 0xda, 0x3e, 0x90, 0x19, 0x74, 0x3e,
  0x85, 0xdf, 0xfd, 0xbd, 0xc1, 0x63, 0x95, 0xbe, 0x22, 0x63, 0x4a, 0x3e,
  0xf1, 0xf2, 0x85, 0x3e, 0x5e, 0x14, 0x15, 0xbe, 0x90, 0x5b, 0x3b, 0x3e,
  0x3a, 0x12, 0x8e, 0x3d, 0x71, 0x1d, 0x60, 0xbe, 0x5a, 0x20, 0x83, 0x3c,
  0xc4, 0x2e, 0xc0, 0xbd, 0x2c, 0xad, 0xc1, 0xbd, 0xb4, 0xed, 0xac, 0xbe,
  0x8a, 0xdd, 0xb0, 0x3e, 0x17, 0x3e, 0x25, 0xbc, 0x16, 0x76, 0xad, 0x3e,
  0x42, 0x89, 0x86, 0xbe, 0x24, 0x37, 0x87, 0x3e, 0x0b, 0xd2, 0x74, 0xbd,
  0xa1, 0xc0, 0x8f, 0xbe, 0x2f, 0x84, 0x20, 0x3d, 0xa9, 0xcc, 0xb0, 0xbd,
  0x81, 0x43, 0x46, 0x3c, 0xae, 0x2e, 0x47, 0x3e, 0x43, 0x25, 0x2f, 0x3d,
  0xec, 0x71, 0x14, 0xbe, 0x54, 0xc9, 0xa8, 0xbe, 0xb6, 0xa8, 0x0a, 0x3e,
  0x22, 0x77, 0x94, 0xbe, 0xda, 0xb9, 0x70, 0x3b, 0xe2, 0x2c, 0xdb, 0x3d,
  0x50, 0xe1, 0x7c, 0x3d, 0x42, 0xa3, 0x45, 0xbe, 0x8e, 0x3a, 0x91, 0xbe,
  0xf8, 0x53, 0xc3, 0x3e, 0x29, 0xe6, 0xa2, 0x3d, 0xc0, 0xcf, 0x07, 0xbc,
  0x60, 0x96, 0xeb, 0x3d, 0x4e, 0x78, 0xa5, 0xbe, 0x28, 0x9b, 0x76, 0xbe,
  0x51, 0x4a, 0xbf, 0xba, 0xec, 0xae, 0xe9, 0xbd, 0xe8, 0xb0, 0xe2, 0x3d,
  0x90, 0xf7, 0x36, 0x3e, 0x64, 0x7f, 0x6d, 0x3e, 0xe0, 0x03, 0xa2, 0xbd,
  0x3c, 0x92, 0xb6, 0xbe, 0xb0, 0xcb, 0x86, 0xbc, 0x18, 0x26, 0xbe, 0xbe,
  0xf3, 0x97, 0xb5, 0xbe, 0x34, 0xad, 0xfe, 0xbd, 0x08, 0xef, 0xa5, 0x3d,
  0xee, 0x58, 0x13, 0xbe, 0x7a, 0x86, 0x9d, 0x3e, 0xd2, 0x95, 0xd1, 0xbe,
  0x48, 0x25, 0xee, 0x3d, 0x3f, 0x27, 0xb9, 0xbe, 0x42, 0x19, 0xaa, 0x3e,
  0x72, 0xed, 0xb8, 0x3e, 0x82, 0xb7, 0xbd, 0xbe, 0x80, 0x07, 0x80, 0x3e,
  0x2a, 0x91, 0x56, 0x3e, 0x85, 0x53, 0xa5, 0x3e, 0xdc, 0xc3, 0xe8, 0x3e,
  0x16, 0x51, 0xca, 0xbe, 0x50, 0x91, 0x0a, 0xbd, 0xde, 0xd2, 0xea, 0x3b,
  0x5f, 0x8b, 0xcd, 0x3e, 0x59, 0x3b, 0x92, 0xbe, 0xad, 0xee, 0xe6, 0x3d,
  0xd3, 0xf5, 0x78, 0xbe, 0xf5, 0x38, 0x7f, 0xbe, 0x5e, 0x7d, 0x8e, 0xbe,
  0xb8, 0x2a, 0x5d, 0x3e, 0x6b, 0xf7, 0x45, 0x3d, 0xfc, 0xbb, 0xd0, 0xbe,
  0x2a, 0x65, 0x9f, 0xbe, 0x42, 0x88, 0x90, 0x3e, 0xbc, 0x60, 0xd6, 0xbe,
  0xd1, 0x59, 0xc8, 0xbe, 0xf9, 0x68, 0xa0, 0x3e, 0x09, 0x93, 0x99, 0xbe,
  0x60, 0x44, 0x67, 0xbd, 0x38, 0x7e, 0xd3, 0x3e, 0xa2, 0xc1, 0xab, 0x3e,
  0x44, 0xee, 0x1e, 0x3e, 0x30, 0x49, 0xe4, 0x3e, 0x28, 0x31, 0x84, 0xbe,
  0x14, 0x7f, 0x4d, 0x3e, 0x13, 0xbb, 0x55, 0xbe, 0xfe, 0xb2, 0xd2, 0xbe,
  0x10, 0x23, 0xa0, 0xbe, 0x33, 0x83, 0xdd, 0xbe, 0x66, 0x75, 0x84, 0xbe,
  0xa8, 0x36, 0x05, 0x3e, 0x3a, 0xb6, 0xba, 0x3e, 0x68, 0x48, 0x52, 0x3e,
  0x84, 0x78, 0x8e, 0xbe, 0xe2, 0xd2, 0x70, 0xbe, 0xe4, 0xd0, 0x40, 0xbe,
  0x06, 0x29, 0xe1, 0xbe, 0xbe, 0x13, 0x8d, 0x3e, 0x7e, 0x93, 0xda, 0xbe,
  0xc0, 0xd3, 0x85, 0xbd, 0xf1, 0x2d, 0x18, 0xbc, 0x9f, 0x3d, 0x7d, 0xbe,
  0xe7, 0x19, 0x3e, 0x3e, 0x30, 0x48, 0xb6, 0xbe, 0x2f, 0x2f, 0xa9, 0xbd,
  0x1b, 0xb4, 0xc3, 0xbe, 0xd5, 0x80, 0x99, 0x3e, 0x79, 0xc9, 0xd0, 0xbe,
  0xe5, 0xe3, 0xcd, 0xbc, 0x00, 0xec, 0xa2, 0xbb, 0xed, 0x0a, 0xeb, 0xbc,
  0xf2, 0x45, 0x86, 0x3e, 0x10, 0xef, 0x37, 0x3e, 0x8a, 0xdc, 0xc3, 0x3e,
  0x34, 0xc9, 0x53, 0xbe, 0xa0, 0xce, 0x9e, 0xbe, 0xd5, 0x9a, 0x72, 0x3d,
  0x93, 0x82, 0x90, 0xbe, 0x24, 0xa2, 0x34, 0x3e, 0x61, 0x32, 0x2a, 0x3e,
  0xea, 0x8c, 0x8c, 0xbe, 0x70, 0x1d, 0x01, 0xbd, 0xa3, 0x39, 0x84, 0x3e,
  0x5f, 0xd9, 0x1f, 0xbe, 0xd6, 0x57, 0x57, 0x3e, 0x5c, 0x96, 0xdb, 0x3d,
  0x9d, 0x9c, 0xf9, 0x3d, 0xb8, 0x25, 0x3e, 0x3e, 0xe7, 0x23, 0xa8, 0x3e,
  0xc8, 0x8b, 0x97, 0xbe, 0x81, 0xba, 0x47, 0xbe, 0x09, 0x73, 0x1e, 0xbe,
  0xd8, 0xe5, 0xc8, 0xbe, 0x26, 0x27, 0xc1, 0xbe, 0x97, 0x82, 0x51, 0xbe,
  0x7a, 0x73, 0xec, 0x3d, 0xb5, 0x4f, 0xc8, 0x3e, 0x79, 0x6d, 0xd7, 0xbe,
  0xa8, 0x0d, 0x9c, 0xbe, 0x6e, 0xb1, 0x30, 0x3d, 0x62, 0x06, 0x91, 0x3e,
  0x40, 0x99, 0xe0, 0x3b, 0xda, 0xdd, 0xb3, 0xbe, 0xce, 0x35, 0xa1, 0xbd,
  0xba, 0x3e, 0x89, 0x3e, 0x60, 0xe2, 0xd1, 0x3e, 0xc2, 0x51, 0x15, 0xbe,
  0xa9, 0x32, 0xe4, 0xbe, 0x56, 0x2f, 0xbd, 0xbe, 0x9c, 0x73, 0xcb, 0xbd,
  0x40, 0xba, 0xe4, 0xbe, 0xa4, 0x3a, 0xa7, 0xbe, 0xde, 0x99, 0xb6, 0xbe,
  0x20, 0xcd, 0x77, 0x3d, 0xf6, 0x9f, 0xb7, 0x3e, 0xee, 0x01, 0x89, 0xbe,
  0xf0, 0x2d, 0xb5, 0x3e, 0x0e, 0x4e, 0xd6, 0xbe, 0x4a, 0x8b, 0xc5, 0x3e,
  0x52, 0x73, 0x43, 0xbe, 0xe0, 0x17, 0x74, 0x3c, 0xa8, 0x49, 0x8d, 0x3e,
  0x70, 0x12, 0xd2, 0x3e, 0x3e, 0x39, 0x65, 0xbe, 0xe3, 0x30, 0xdd, 0xbe,
  0xef, 0x04, 0x4f, 0xbe, 0xb4, 0xd7, 0xc9, 0x3e, 0xd8, 0x1b, 0x57, 0x3e,
  0xe4, 0x12, 0x97, 0x3e, 0x70, 0x23, 0x8e, 0x3d, 0x85, 0xd2, 0xbb, 0xbe,
  0x48, 0xa7, 0x9e, 0x3d, 0x22, 0xc8, 0x85, 0x3e, 0x78, 0x78, 0xc5, 0x3e,
  0x98, 0x02, 0x00, 0xbd, 0x8c, 0x37, 0xbf, 0xbd, 0xa0, 0x75, 0xae, 0x3c,
  0xa6, 0xfa, 0xff, 0xff, 0x04, 0x00, 0x00, 0x00, 0x10, 0x04, 0x00, 0x00,
  0x56, 0x2e, 0xce, 0xbe, 0x2f, 0xfc, 0xa0, 0x3e, 0xd4, 0x83, 0x9e, 0xbd,
  0xcd, 0x46, 0x3e, 0x3e, 0x55, 0xa7, 0x3c, 0x3e, 0xe0, 0x34, 0x5f, 0xbe,
  0x75, 0xd7, 0x8c, 0x3e, 0xd4, 0xf9, 0x86, 0xbe, 0x79, 0xbc, 0x5d, 0x3d,
  0x9b, 0x54, 0xbe, 0xbe, 0x38, 0x73, 0x6d, 0x3e, 0x08, 0x7f, 0xb0, 0x3e,
  0x94, 0x3b, 0x83, 0xbe, 0x93, 0xe9, 0x8e, 0xbd, 0xde, 0x94, 0xd9, 0xbe,
  0xdc, 0x29, 0x97, 0x3e, 0xa8, 0xf9, 0xbf, 0xbe, 0x8c, 0x0b, 0x7f, 0x3e,
  0xb8, 0x74, 0x56, 0xbe, 0x9f, 0x4a, 0x40, 0x3e, 0x75, 0x8a, 0x8c, 0x3e,
  0xd8, 0x03, 0xa6, 0x3e, 0xc0, 0xf8, 0x16, 0x3e, 0x9d, 0x21, 0xa7, 0xbc,
  0x10, 0xbd, 0x99, 0x3e, 0x21, 0xfb, 0xaf, 0xbe, 0x00, 0x9d, 0xbd, 0x3c,
  0x42, 0xb4, 0xc3, 0xbe, 0x19, 0x8a, 0xc2, 0xbe, 0xe5, 0x18, 0x4f, 0xbe,
  0xfd, 0xca, 0x5b, 0x3e, 0xed, 0xd2, 0x76, 0x3d, 0x10, 0x9d, 0xb9, 0x3d,
  0xe9, 0x65, 0xa5, 0xbe, 0x1e, 0x02, 0x6d, 0xbd, 0xb8, 0x71, 0xb4, 0x3e,
  0x25, 0x8f, 0xc3, 0xbe, 0xf8, 0xcf, 0x82, 0xbd, 0x19, 0x5b, 0x79, 0x3e,
  0xb3, 0x2d, 0xca, 0x3e, 0x13, 0x0e, 0x2d, 0xbe, 0xb5, 0x84, 0xa6, 0x3e,
  0x2d, 0xcf, 0xac, 0xbd, 0xed, 0xe5, 0x13, 0x3e, 0x2c, 0xa6, 0xd1, 0xbe,
  0x9f, 0x24, 0xcb, 0x3e, 0xdb, 0x66, 0x7e, 0x3e, 0xcc, 0x73, 0x99, 0xbe,
  0x80, 0x83, 0x37, 0xbe, 0x25, 0x51, 0xd1, 0x3d, 0xa8, 0x04, 0x86, 0x3e,
  0x22, 0x6c, 0xcd, 0xbe, 0xab, 0x8e, 0x3a, 0xbe, 0x18, 0x9f, 0xd7, 0x3d,
  0x34, 0x6f, 0xb8, 0x3e, 0x70, 0xac, 0x97, 0x3d, 0x46, 0x4d, 0x64, 0xbe,
  0xfc, 0x3e, 0xfb, 0xbd, 0x17, 0xda, 0x62, 0xbe, 0x64, 0xe7, 0x91, 0xbe,
  0xb8, 0x4f, 0x78, 0x3e, 0xf0, 0xe9, 0x13, 0xbd, 0xda, 0x77, 0x7e, 0xbe,
  0x20, 0x2c, 0x4c, 0x3e, 0x7c, 0x04, 0x5c, 0xbe, 0xbb, 0x1e, 0xdb, 0x3e,
  0x24, 0xa3, 0x0f, 0xbd, 0x7c, 0x0c, 0x68, 0x3d, 0x87, 0xe0, 0xc9, 0xbe,
  0xa1, 0x82, 0x6e, 0xbd, 0xee, 0xaa, 0xd3, 0xbe, 0x6b, 0xf6, 0xf2, 0x3d,
  0xfa, 0x4c, 0x0b, 0xbe, 0xf7, 0x5e, 0x87, 0xbe, 0x29, 0xf4, 0x7b, 0x3d,
  0x3c, 0x96, 0xc5, 0x3c, 0x24, 0x67, 0xa5, 0x3e, 0x61, 0xfd, 0x98, 0xbd,
  0x16, 0x48, 0xad, 0x3d, 0x6e, 0x12, 0x95, 0xbd, 0x5d, 0xdf, 0xf9, 0xbc,
  0x35, 0x3a, 0xa8, 0xbe, 0xbf, 0xd4, 0x82, 0xbe, 0xe5, 0x0a, 0xa3, 0xbe,
  0xce, 0x56, 0xce, 0x3e, 0x7f, 0x01, 0xd9, 0xbe, 0xf5, 0x1e, 0x27, 0xbc,
  0xb3, 0xfe, 0x75, 0x3e, 0xf8, 0x39, 0x8d, 0xbe, 0x5a, 0xcd, 0x8b, 0x3e,
  0x1a, 0xd2, 0xc7, 0x3e, 0xed, 0xc0, 0xd5, 0xbe, 0x5c, 0xae, 0x9a, 0xbe,
  0xfc, 0xfe, 0xf8, 0x3d, 0xfd, 0xa1, 0x47, 0xbe, 0x1c, 0x92, 0xa6, 0x3e,
  0xa5, 0xb5, 0x8a, 0x3d, 0x2c, 0x4a, 0x94, 0x3e, 0xf2, 0x62, 0xe8, 0x3d,
  0x71, 0x4c, 0x27, 0x3e, 0x31, 0xd1, 0x30, 0x3d, 0x9d, 0x1d, 0x10, 0xbd,
  0x7c, 0xc0, 0x4a, 0x3e, 0xe4, 0x0a, 0xa7, 0x3e, 0x82, 0xbd, 0x0a, 0x3e,
  0x66, 0x64, 0x22, 0xbe, 0x58, 0xee, 0xe1, 0xbd, 0x44, 0x27, 0xd1, 0x3e,
  0x9a, 0xb5, 0x58, 0x3e, 0x3f, 0x3a, 0xa5, 0xbe, 0xbb, 0xe0, 0x74, 0x3e,
  0xa4, 0x10, 0x7a, 0x3e, 0x24, 0xda, 0xe7, 0x3d, 0x51, 0x08, 0xe3, 0xbe,
  0x88, 0xf5, 0xe9, 0xbd, 0x18, 0xd3, 0x65, 0x3d, 0x69, 0x39, 0x3a, 0xbe,
  0x3b, 0x1d, 0xc4, 0x3e, 0x5a, 0xd5, 0x5a, 0x3e, 0xa9, 0x34, 0x72, 0x3e,
  0x33, 0x80, 0xc5, 0x3e, 0xaa, 0x11, 0xcd, 0x3d, 0xe3, 0x1b, 0x2f, 0x3e,
  0xf9, 0x19, 0xa6, 0x3e, 0x89, 0xc0, 0x51, 0x3b, 0x85, 0xa1, 0xc1, 0xbe,
  0xc6, 0xb2, 0x4a, 0x3e, 0x9b, 0x15, 0x40, 0x3e, 0x88, 0xd2, 0xd5, 0x3d,
  0x38, 0x70, 0x08, 0x3d, 0xa4, 0x29, 0x8c, 0xbe, 0xe8, 0xcb, 0x87, 0x3e,
  0x00, 0x81, 0x17, 0xbc, 0xd8, 0xa2, 0x7e, 0x3e, 0xb7, 0xbc, 0x57, 0xbe,
  0xc0, 0xa0, 0xc9, 0x3d, 0xa5, 0xed, 0xa6, 0xbe, 0x35, 0xd7, 0xb7, 0xbe,
  0x70, 0xb4, 0x70, 0x3e, 0xfe, 0x19, 0x82, 0xbe, 0x0c, 0x44, 0x1f, 0x3e,
  0xcc, 0x6c, 0xbf, 0x3e, 0x09, 0x69, 0x39, 0xbe, 0xc7, 0xee, 0xc5, 0x3e,
  0x2d, 0x38, 0xab, 0x3e, 0xb7, 0x93, 0xc7, 0x3e, 0xf6, 0x53, 0x0a, 0xbe,
  0x6d, 0xbe, 0x4c, 0xbd, 0xc3, 0x06, 0xa4, 0x3e, 0x98, 0xe5, 0xdd, 0x3c,
  0x3a, 0x95, 0x58, 0xbe, 0x9f, 0xe9, 0x3f, 0xbe, 0x8f, 0x3f, 0x1c, 0xba,
  0x48, 0x90, 0x30, 0xbe, 0x6a, 0x4e, 0xce, 0xbe, 0x53, 0x48, 0x13, 0xbe,
  0x68, 0x13, 0xc2, 0x3e, 0x40, 0xe1, 0x8b, 0x3b, 0xc6, 0x66, 0x98, 0xbe,
  0xc3, 0x9d, 0xc9, 0xbe, 0xe0, 0xce, 0xb3, 0xbc, 0x50, 0x25, 0xb2, 0xbc,
  0x97, 0x6d, 0x80, 0xbe, 0x94, 0x53, 0xc3, 0x3e, 0xb4, 0x78, 0xf9, 0xbd,
  0xd8, 0xd4, 0xd6, 0x3d, 0x2c, 0x9b, 0xd5, 0xbe, 0x8e, 0x24, 0xa6, 0x3e,
  0x40, 0x70, 0xb4, 0xbc, 0xde, 0x1a, 0xef, 0x3c, 0x8d, 0x73, 0xd3, 0xbe,
  0x49, 0xa5, 0x9f, 0xbe, 0x78, 0x64, 0xba, 0x3d, 0x5e, 0x73, 0xba, 0x3e,
  0xf1, 0x62, 0x56, 0xbd, 0x2c, 0xeb, 0x7d, 0x3c, 0xcf, 0xd3, 0xaa, 0xbe,
  0x49, 0x7d, 0xc8, 0xbe, 0x4f, 0xef, 0xd4, 0xbe, 0x75, 0xfc, 0xde, 0x3e,
  0x97, 0xe8, 0xaf, 0xbe, 0xcd, 0xbe, 0x66, 0x3e, 0xae, 0xd2, 0x40, 0xbe,
  0x96, 0x7b, 0x5a, 0xbe, 0x6e, 0x32, 0x93, 0xbe, 0xae, 0x0e, 0xf2, 0x3d,
  0x06, 0xa1, 0xd3, 0xbe, 0x55, 0x06, 0xaf, 0x3d, 0x7d, 0xac, 0xa8, 0xbe,
  0xfa, 0x4a, 0x82, 0xbe, 0xd7, 0xad, 0x8d, 0xbe, 0x3a, 0xe0, 0xb4, 0x3e,
  0xbc, 0x22, 0x49, 0x3e, 0x74, 0xe2, 0x0e, 0x3e, 0x38, 0x16, 0x7f, 0x3e,
  0x40, 0x9c, 0x8a, 0xbc, 0x54, 0xeb, 0x31, 0x3e, 0xca, 0xf0, 0xa5, 0x3e,
  0x50, 0xe2, 0xb0, 0x3c, 0x68, 0x03, 0xc1, 0xbd, 0x64, 0xef, 0xa2, 0xbd,
  0x31, 0xf6, 0x9c, 0xbe, 0x28, 0xd8, 0xa7, 0x3d, 0xa2, 0xc7, 0xbf, 0xbe,
  0x50, 0x2c, 0xfe, 0x3d, 0x98, 0xb8, 0x5c, 0x3e, 0x08, 0xfd, 0xe3, 0xbd,
  0x51, 0x5f, 0xa1, 0xbe, 0x70, 0x4b, 0xa9, 0xbc, 0x08, 0xb8, 0x4a, 0xbd,
  0xba, 0xdb, 0x88, 0xbe, 0x68, 0x3f, 0xfd, 0xbd, 0xa8, 0x83, 0x90, 0xbd,
  0x94, 0x34, 0x6d, 0x3e, 0x96, 0xf4, 0xb4, 0xbe, 0xda, 0x08, 0xc5, 0x3e,
  0xa8, 0x85, 0x11, 0x3e, 0x22, 0x65, 0xab, 0x3e, 0x9d, 0xe6, 0x99, 0xbe,
  0x8c, 0x81, 0xfd, 0xbd, 0xbe, 0x9b, 0xce, 0xbe, 0xf3, 0xc2, 0x8a, 0xbb,
  0x0d, 0x0e, 0x2e, 0x3e, 0xeb, 0x16, 0x94, 0xbe, 0x33, 0x66, 0xc8, 0xbe,
  0x14, 0x7e, 0x08, 0x3e, 0xa7, 0x2c, 0x86, 0xbe, 0xb2, 0xb4, 0xa1, 0xbe,
  0x7c, 0x9b, 0x90, 0xbe, 0xc6, 0x61, 0x96, 0xbe, 0xd6, 0xfe, 0x65, 0x3b,
  0x45, 0xf0, 0xb1, 0xbe, 0x3c, 0xcc, 0xa1, 0xbe, 0x53, 0xb0, 0x5c, 0x3d,
  0x13, 0xac, 0x49, 0x3e, 0xbd, 0xb1, 0x3d, 0x3e, 0xf9, 0xf7, 0xb2, 0x3e,
  0x91, 0x7d, 0x89, 0x3e, 0xfe, 0xdf, 0xc2, 0x3e, 0x05, 0x3c, 0xf3, 0xbd,
  0x2f, 0xc5, 0x31, 0x3d, 0xf9, 0x5b, 0x66, 0xbe, 0x36, 0xbf, 0x42, 0x3e,
  0xb3, 0xd2, 0xcd, 0x3e, 0x3f, 0x17, 0x8c, 0x3e, 0x50, 0xbe, 0x2f, 0x3e,
  0x59, 0xdb, 0xa3, 0xbe, 0xec, 0x6d, 0xd1, 0x3e, 0xff, 0xe9, 0x5c, 0x3e,
  0x07, 0x85, 0x9a, 0x3e, 0xd5, 0x96, 0xd5, 0xbe, 0x3c, 0xb1, 0xcb, 0x3e,
  0x37, 0xac, 0x90, 0x3d, 0xb0, 0xd4, 0x6c, 0x3e, 0x9b, 0x74, 0xb6, 0xbd,
  0xbd, 0x5c, 0x3b, 0xbd, 0x45, 0x22, 0xb1, 0xbe, 0x16, 0x4b, 0x13, 0x3e,
  0x10, 0x70, 0xe5, 0x3d, 0xfc, 0xd4, 0x8c, 0x3e, 0xc2, 0xfe, 0xff, 0xff,
  0x04, 0x00, 0x00, 0x00, 0x50, 0x00, 0x00, 0x00, 0x00, 0x39, 0x13, 0xbd,
  0x53, 0x66, 0x58, 0x3c, 0xb0, 0xff, 0x8f, 0x3c, 0x5c, 0x9d, 0x3c, 0xbc,
  0x00, 0x00, 0x00, 0x00, 0x61, 0x71, 0x67, 0x3c, 0xfe, 0xc5, 0x07, 0xbd,
  0x27, 0xee, 0x1b, 0x3d, 0xf8, 0x08, 0xa6, 0x3c, 0xb3, 0x63, 0x1b, 0xbd,
  0x00, 0x00, 0x00, 0x00, 0x4b, 0x0c, 0x04, 0x3b, 0x00, 0x00, 0x00, 0x00,
  0x83, 0x79, 0x01, 0x3d, 0xfc, 0xf3, 0xdd, 0xbc, 0x00, 0x00, 0x00, 0x00,
  0x00, 0x00, 0x00, 0x00, 0x34, 0xaa, 0xf6, 0x3c, 0xf0, 0xb3, 0x53, 0xbc,
  0x23, 0x8e, 0xfd, 0xbc, 0x1e, 0xff, 0xff, 0xff, 0x04, 0x00, 0x00, 0x00,
  0x0c, 0x00, 0x00, 0x00, 0x32, 0x45, 0x28, 0x3d, 0x8e, 0x87, 0x96, 0xbc,
  0x30, 0x56, 0x11, 0xbd, 0x36, 0xff, 0xff, 0xff, 0x04, 0x00, 0x00, 0x00,
  0x28, 0x00, 0x00, 0x00, 0x31, 0xb7, 0x2a, 0xbd, 0xde, 0xe5, 0xa7, 0xbc,
  0xc0, 0x7f, 0x04, 0x3d, 0x00, 0x00, 0x00, 0x00, 0x91, 0x86, 0xdf, 0xbc,
  0x00, 0x00, 0x00, 0x00, 0x11, 0xce, 0x80, 0xbc, 0x86, 0xa5, 0xba, 0x3b,
  0x72, 0xba, 0x57, 0xbc, 0x00, 0x00, 0x00, 0x00, 0x5c, 0xfa, 0xff, 0xff,
  0x60, 0xfa, 0xff, 0xff, 0x0f, 0x00, 0x00, 0x00, 0x4d, 0x4c, 0x49, 0x52,
  0x20, 0x43, 0x6f, 0x6e, 0x76, 0x65, 0x72, 0x74, 0x65, 0x64, 0x2e, 0x00,
  0x01, 0x00, 0x00, 0x00, 0x14, 0x00, 0x00, 0x00, 0x00, 0x00, 0x0e, 0x00,
  0x18, 0x00, 0x14, 0x00, 0x10, 0x00, 0x0c, 0x00, 0x08, 0x00, 0x04, 0x00,
  0x0e, 0x00, 0x00, 0x00, 0x14, 0x00, 0x00, 0x00, 0x1c, 0x00, 0x00, 0x00,
  0x24, 0x01, 0x00, 0x00, 0x28, 0x01, 0x00, 0x00, 0x2c, 0x01, 0x00, 0x00,
  0x04, 0x00, 0x00, 0x00, 0x6d, 0x61, 0x69, 0x6e, 0x00, 0x00, 0x00, 0x00,
  0x04, 0x00, 0x00, 0x00, 0xcc, 0x00, 0x00, 0x00, 0x84, 0x00, 0x00, 0x00,
  0x50, 0x00, 0x00, 0x00, 0x14, 0x00, 0x00, 0x00, 0x00, 0x00, 0x0e, 0x00,
  0x1a, 0x00, 0x14, 0x00, 0x10, 0x00, 0x0c, 0x00, 0x0b, 0x00, 0x04, 0x00,
  0x0e, 0x00, 0x00, 0x00, 0x1c, 0x00, 0x00, 0x00, 0x00, 0x00, 0x00, 0x09,
  0x1c, 0x00, 0x00, 0x00, 0x20, 0x00, 0x00, 0x00, 0x01, 0x00, 0x00, 0x00,
  0x00, 0x00, 0x06, 0x00, 0x08, 0x00, 0x04, 0x00, 0x06, 0x00, 0x00, 0x00,
  0x00, 0x00, 0x80, 0x3f, 0x01, 0x00, 0x00, 0x00, 0x0a, 0x00, 0x00, 0x00,
  0x01, 0x00, 0x00, 0x00, 0x09, 0x00, 0x00, 0x00, 0x9a, 0xff, 0xff, 0xff,
  0x10, 0x00, 0x00, 0x00, 0x00, 0x00, 0x00, 0x08, 0x0c, 0x00, 0x00, 0x00,
  0x10, 0x00, 0x00, 0x00, 0x24, 0xfb, 0xff, 0xff, 0x01, 0x00, 0x00, 0x00,
  0x09, 0x00, 0x00, 0x00, 0x03, 0x00, 0x00, 0x00, 0x08, 0x00, 0x00, 0x00,
  0x06, 0x00, 0x00, 0x00, 0x02, 0x00, 0x00, 0x00, 0xca, 0xff, 0xff, 0xff,
  0x10, 0x00, 0x00, 0x00, 0x00, 0x00, 0x00, 0x08, 0x10, 0x00, 0x00, 0x00,
  0x14, 0x00, 0x00, 0x00, 0xba, 0xff, 0xff, 0xff, 0x00, 0x00, 0x00, 0x01,
  0x01, 0x00, 0x00, 0x00, 0x08, 0x00, 0x00, 0x00, 0x03, 0x00, 0x00, 0x00,
  0x07, 0x00, 0x00, 0x00, 0x05, 0x00, 0x00, 0x00, 0x01, 0x00, 0x00, 0x00,
  0x00, 0x00, 0x0e, 0x00, 0x16, 0x00, 0x00, 0x00, 0x10, 0x00, 0x0c, 0x00,
  0x0b, 0x00, 0x04, 0x00, 0x0e, 0x00, 0x00, 0x00, 0x18, 0x00, 0x00, 0x00,
  0x00, 0x00, 0x00, 0x08, 0x18, 0x00, 0x00, 0x00, 0x1c, 0x00, 0x00, 0x00,
  0x00, 0x00, 0x06, 0x00, 0x08, 0x00, 0x07, 0x00, 0x06, 0x00, 0x00, 0x00,
  0x00, 0x00, 0x00, 0x01, 0x01, 0x00, 0x00, 0x00, 0x07, 0x00, 0x00, 0x00,
  0x03, 0x00, 0x00, 0x00, 0x00, 0x00, 0x00, 0x00, 0x04, 0x00, 0x00, 0x00,
  0x03, 0x00, 0x00, 0x00, 0x01, 0x00, 0x00, 0x00, 0x0a, 0x00, 0x00, 0x00,
  0x01, 0x00, 0x00, 0x00, 0x00, 0x00, 0x00, 0x00, 0x0b, 0x00, 0x00, 0x00,
  0x04, 0x04, 0x00, 0x00, 0x94, 0x03, 0x00, 0x00, 0x24, 0x03, 0x00, 0x00,
  0xd0, 0x02, 0x00, 0x00, 0x88, 0x02, 0x00, 0x00, 0x3c, 0x02, 0x00, 0x00,
  0xf0, 0x01, 0x00, 0x00, 0x68, 0x01, 0x00, 0x00, 0xd8, 0x00, 0x00, 0x00,
  0x60, 0x00, 0x00, 0x00, 0x04, 0x00, 0x00, 0x00, 0x3e, 0xfc, 0xff, 0xff,
  0x00, 0x00, 0x00, 0x01, 0x14, 0x00, 0x00, 0x00, 0x1c, 0x00, 0x00, 0x00,
  0x1c, 0x00, 0x00, 0x00, 0x0b, 0x00, 0x00, 0x00, 0x34, 0x00, 0x00, 0x00,
  0x02, 0x00, 0x00, 0x00, 0xff, 0xff, 0xff, 0xff, 0x03, 0x00, 0x00, 0x00,
  0x28, 0xfc, 0xff, 0xff, 0x19, 0x00, 0x00, 0x00, 0x53, 0x74, 0x61, 0x74,
  0x65, 0x66, 0x75, 0x6c, 0x50, 0x61, 0x72, 0x74, 0x69, 0x74, 0x69, 0x6f,
  0x6e, 0x65, 0x64, 0x43, 0x61, 0x6c, 0x6c, 0x3a, 0x30, 0x00, 0x00, 0x00,
  0x02, 0x00, 0x00, 0x00, 0x01, 0x00, 0x00, 0x00, 0x03, 0x00, 0x00, 0x00,
  0x96, 0xfc, 0xff, 0xff, 0x00, 0x00, 0x00, 0x01, 0x14, 0x00, 0x00, 0x00,
  0x1c, 0x00, 0x00, 0x00, 0x1c, 0x00, 0x00, 0x00, 0x0a, 0x00, 0x00, 0x00,
  0x50, 0x00, 0x00, 0x00, 0x02, 0x00, 0x00, 0x00, 0xff, 0xff, 0xff, 0xff,
  0x03, 0x00, 0x00, 0x00, 0x80, 0xfc, 0xff, 0xff, 0x34, 0x00, 0x00, 0x00,
  0x73, 0x65, 0x71, 0x75, 0x65, 0x6e, 0x74, 0x69, 0x61, 0x6c, 0x2f, 0x64,
  0x65, 0x6e, 0x73, 0x65, 0x5f, 0x32, 0x2f, 0x4d, 0x61, 0x74, 0x4d, 0x75,
  0x6c, 0x3b, 0x73, 0x65, 0x71, 0x75, 0x65, 0x6e, 0x74, 0x69, 0x61, 0x6c,
  0x2f, 0x64, 0x65, 0x6e, 0x73, 0x65, 0x5f, 0x32, 0x2f, 0x42, 0x69, 0x61,
  0x73, 0x41, 0x64, 0x64, 0x00, 0x00, 0x00, 0x00, 0x02, 0x00, 0x00, 0x00,
  0x01, 0x00, 0x00, 0x00, 0x03, 0x00, 0x00, 0x00, 0x0a, 0xfd, 0xff, 0xff,
  0x00, 0x00, 0x00, 0x01, 0x14, 0x00, 0x00, 0x00, 0x1c, 0x00, 0x00, 0x00,
  0x1c, 0x00, 0x00, 0x00, 0x09, 0x00, 0x00, 0x00, 0x68, 0x00, 0x00, 0x00,
  0x02, 0x00, 0x00, 0x00, 0xff, 0xff, 0xff, 0xff, 0x0a, 0x00, 0x00, 0x00,
  0xf4, 0xfc, 0xff, 0xff, 0x4c, 0x00, 0x00, 0x00, 0x73, 0x65, 0x71, 0x75,
  0x65, 0x6e, 0x74, 0x69, 0x61, 0x6c, 0x2f, 0x64, 0x65, 0x6e, 0x73, 0x65,
  0x5f, 0x31, 0x2f, 0x4d, 0x61, 0x74, 0x4d, 0x75, 0x6c, 0x3b, 0x73, 0x65,
  0x71, 0x75, 0x65, 0x6e, 0x74, 0x69, 0x61, 0x6c, 0x2f, 0x64, 0x65, 0x6e,
  0x73, 0x65, 0x5f, 0x31, 0x2f, 0x52, 0x65, 0x6c, 0x75, 0x3b, 0x73, 0x65,
  0x71, 0x75, 0x65, 0x6e, 0x74, 0x69, 0x61, 0x6c, 0x2f, 0x64, 0x65, 0x6e,
  0x73, 0x65, 0x5f, 0x31, 0x2f, 0x42, 0x69, 0x61, 0x73, 0x41, 0x64, 0x64,
  0x00, 0x00, 0x00, 0x00, 0x02, 0x00, 0x00, 0x00, 0x01, 0x00, 0x00, 0x00,
  0x0a, 0x00, 0x00, 0x00, 0x96, 0xfd, 0xff, 0xff, 0x00, 0x00, 0x00, 0x01,
  0x14, 0x00, 0x00, 0x00, 0x1c, 0x00, 0x00, 0x00, 0x1c, 0x00, 0x00, 0x00,
  0x08, 0x00, 0x00, 0x00, 0x60, 0x00, 0x00, 0x00, 0x02, 0x00, 0x00, 0x00,
  0xff, 0xff, 0xff, 0xff, 0x14, 0x00, 0x00, 0x00, 0x80, 0xfd, 0xff, 0xff,
  0x46, 0x00, 0x00, 0x00, 0x73, 0x65, 0x71, 0x75, 0x65, 0x6e, 0x74, 0x69,
  0x61, 0x6c, 0x2f, 0x64, 0x65, 0x6e, 0x73, 0x65, 0x2f, 0x4d, 0x61, 0x74,
  0x4d, 0x75, 0x6c, 0x3b, 0x73, 0x65, 0x71, 0x75, 0x65, 0x6e, 0x74, 0x69,
  0x61, 0x6c, 0x2f, 0x64, 0x65, 0x6e, 0x73, 0x65, 0x2f, 0x52, 0x65, 0x6c,
  0x75, 0x3b, 0x73, 0x65, 0x71, 0x75, 0x65, 0x6e, 0x74, 0x69, 0x61, 0x6c,
  0x2f, 0x64, 0x65, 0x6e, 0x73, 0x65, 0x2f, 0x42, 0x69, 0x61, 0x73, 0x41,
  0x64, 0x64, 0x00, 0x00, 0x02, 0x00, 0x00, 0x00, 0x01, 0x00, 0x00, 0x00,
  0x14, 0x00, 0x00, 0x00, 0x86, 0xfe, 0xff, 0xff, 0x00, 0x00, 0x00, 0x01,
  0x10, 0x00, 0x00, 0x00, 0x10, 0x00, 0x00, 0x00, 0x07, 0x00, 0x00, 0x00,
  0x28, 0x00, 0x00, 0x00, 0xf4, 0xfd, 0xff, 0xff, 0x19, 0x00, 0x00, 0x00,
  0x73, 0x65, 0x71, 0x75, 0x65, 0x6e, 0x74, 0x69, 0x61, 0x6c, 0x2f, 0x64,
  0x65, 0x6e, 0x73, 0x65, 0x5f, 0x32, 0x2f, 0x4d, 0x61, 0x74, 0x4d, 0x75,
  0x6c, 0x00, 0x00, 0x00, 0x02, 0x00, 0x00, 0x00, 0x03, 0x00, 0x00, 0x00,
  0x0a, 0x00, 0x00, 0x00, 0xce, 0xfe, 0xff, 0xff, 0x00, 0x00, 0x00, 0x01,
  0x10, 0x00, 0x00, 0x00, 0x10, 0x00, 0x00, 0x00, 0x06, 0x00, 0x00, 0x00,
  0x28, 0x00, 0x00, 0x00, 0x3c, 0xfe, 0xff, 0xff, 0x19, 0x00, 0x00, 0x00,
  0x73, 0x65, 0x71, 0x75, 0x65, 0x6e, 0x74, 0x69, 0x61, 0x6c, 0x2f, 0x64,
  0x65, 0x6e, 0x73, 0x65, 0x5f, 0x31, 0x2f, 0x4d, 0x61, 0x74, 0x4d, 0x75,
  0x6c, 0x00, 0x00, 0x00, 0x02, 0x00, 0x00, 0x00, 0x0a, 0x00, 0x00, 0x00,
  0x14, 0x00, 0x00, 0x00, 0x16, 0xff, 0xff, 0xff, 0x00, 0x00, 0x00, 0x01,
  0x10, 0x00, 0x00, 0x00, 0x10, 0x00, 0x00, 0x00, 0x05, 0x00, 0x00, 0x00,
  0x24, 0x00, 0x00, 0x00, 0x84, 0xfe, 0xff, 0xff, 0x17, 0x00, 0x00, 0x00,
  0x73, 0x65, 0x71, 0x75, 0x65, 0x6e, 0x74, 0x69, 0x61, 0x6c, 0x2f, 0x64,
  0x65, 0x6e, 0x73, 0x65, 0x2f, 0x4d, 0x61, 0x74, 0x4d, 0x75, 0x6c, 0x00,
  0x02, 0x00, 0x00, 0x00, 0x14, 0x00, 0x00, 0x00, 0x0d, 0x00, 0x00, 0x00,
  0x5a, 0xff, 0xff, 0xff, 0x00, 0x00, 0x00, 0x01, 0x10, 0x00, 0x00, 0x00,
  0x10, 0x00, 0x00, 0x00, 0x04, 0x00, 0x00, 0x00, 0x34, 0x00, 0x00, 0x00,
  0xc8, 0xfe, 0xff, 0xff, 0x27, 0x00, 0x00, 0x00, 0x73, 0x65, 0x71, 0x75,
  0x65, 0x6e, 0x74, 0x69, 0x61, 0x6c, 0x2f, 0x64, 0x65, 0x6e, 0x73, 0x65,
  0x2f, 0x42, 0x69, 0x61, 0x73, 0x41, 0x64, 0x64, 0x2f, 0x52, 0x65, 0x61,
  0x64, 0x56, 0x61, 0x72, 0x69, 0x61, 0x62, 0x6c, 0x65, 0x4f, 0x70, 0x00,
  0x01, 0x00, 0x00, 0x00, 0x14, 0x00, 0x00, 0x00, 0xaa, 0xff, 0xff, 0xff,
  0x00, 0x00, 0x00, 0x01, 0x10, 0x00, 0x00, 0x00, 0x10, 0x00, 0x00, 0x00,
  0x03, 0x00, 0x00, 0x00, 0x38, 0x00, 0x00, 0x00, 0x18, 0xff, 0xff, 0xff,
  0x29, 0x00, 0x00, 0x00, 0x73, 0x65, 0x71, 0x75, 0x65, 0x6e, 0x74, 0x69,
  0x61, 0x6c, 0x2f, 0x64, 0x65, 0x6e, 0x73, 0x65, 0x5f, 0x32, 0x2f, 0x42,
  0x69, 0x61, 0x73, 0x41, 0x64, 0x64, 0x2f, 0x52, 0x65, 0x61, 0x64, 0x56,
  0x61, 0x72, 0x69, 0x61, 0x62, 0x6c, 0x65, 0x4f, 0x70, 0x00, 0x00, 0x00,
  0x01, 0x00, 0x00, 0x00, 0x03, 0x00, 0x00, 0x00, 0x00, 0x00, 0x16, 0x00,
  0x18, 0x00, 0x14, 0x00, 0x00, 0x00, 0x10, 0x00, 0x0c, 0x00, 0x08, 0x00,
  0x00, 0x00, 0x00, 0x00, 0x00, 0x00, 0x07, 0x00, 0x16, 0x00, 0x00, 0x00,
  0x00, 0x00, 0x00, 0x01, 0x10, 0x00, 0x00, 0x00, 0x10, 0x00, 0x00, 0x00,
  0x02, 0x00, 0x00, 0x00, 0x38, 0x00, 0x00, 0x00, 0x84, 0xff, 0xff, 0xff,
  0x29, 0x00, 0x00, 0x00, 0x73, 0x65, 0x71, 0x75, 0x65, 0x6e, 0x74, 0x69,
  0x61, 0x6c, 0x2f, 0x64, 0x65, 0x6e, 0x73, 0x65, 0x5f, 0x31, 0x2f, 0x42,
  0x69, 0x61, 0x73, 0x41, 0x64, 0x64, 0x2f, 0x52, 0x65, 0x61, 0x64, 0x56,
  0x61, 0x72, 0x69, 0x61, 0x62, 0x6c, 0x65, 0x4f, 0x70, 0x00, 0x00, 0x00,
  0x01, 0x00, 0x00, 0x00, 0x0a, 0x00, 0x00, 0x00, 0x00, 0x00, 0x16, 0x00,
  0x1c, 0x00, 0x18, 0x00, 0x00, 0x00, 0x14, 0x00, 0x10, 0x00, 0x0c, 0x00,
  0x00, 0x00, 0x00, 0x00, 0x08, 0x00, 0x07, 0x00, 0x16, 0x00, 0x00, 0x00,
  0x00, 0x00, 0x00, 0x01, 0x14, 0x00, 0x00, 0x00, 0x20, 0x00, 0x00, 0x00,
  0x20, 0x00, 0x00, 0x00, 0x01, 0x00, 0x00, 0x00, 0x3c, 0x00, 0x00, 0x00,
  0x02, 0x00, 0x00, 0x00, 0xff, 0xff, 0xff, 0xff, 0x0d, 0x00, 0x00, 0x00,
  0x04, 0x00, 0x04, 0x00, 0x04, 0x00, 0x00, 0x00, 0x1d, 0x00, 0x00, 0x00,
  0x73, 0x65, 0x72, 0x76, 0x69, 0x6e, 0x67, 0x5f, 0x64, 0x65, 0x66, 0x61,
  0x75, 0x6c, 0x74, 0x5f, 0x64, 0x65, 0x6e, 0x73, 0x65, 0x5f, 0x69, 0x6e,
  0x70, 0x75, 0x74, 0x3a, 0x30, 0x00, 0x00, 0x00, 0x02, 0x00, 0x00, 0x00,
  0x01, 0x00, 0x00, 0x00, 0x0d, 0x00, 0x00, 0x00, 0x02, 0x00, 0x00, 0x00,
  0x20, 0x00, 0x00, 0x00, 0x04, 0x00, 0x00, 0x00, 0xf4, 0xff, 0xff, 0xff,
  0x19, 0x00, 0x00, 0x00, 0x00, 0x00, 0x00, 0x19, 0x0c, 0x00, 0x0c, 0x00,
  0x0b, 0x00, 0x00, 0x00, 0x00, 0x00, 0x04, 0x00, 0x0c, 0x00, 0x00, 0x00,
  0x09, 0x00, 0x00, 0x00, 0x00, 0x00, 0x00, 0x09
};
unsigned int model_tflite_len = 4184;
